{"<s>":0,"<pad>":1,"</s>":2,"<unk>":3,"<mask>":4,"!":5,"\"":6,"#":7,"$":8,"%":9,"&":10,"'":11,"(":12,")":13,"*":14,"+":15,",":16,"-":17,".":18,"/":19,"0":20,"1":21,"2":22,"3":23,"4":24,"5":25,"6":26,"7":27,"8":28,"9":29,":":30,";":31,"<":32,"=":33,">":34,"?":35,"@":36,"A":37,"B":38,"C":39,"D":40,"E":41,"F":42,"G":43,"H":44,"I":45,"J":46,"K":47,"L":48,"M":49,"N":50,"O":51,"P":52,"Q":53,"R":54,"S":55,"T":56,"U":57,"V":58,"W":59,"X":60,"Y":61,"Z":62,"[":63,"\\":64,"]":65,"^":66,"_":67,"`":68,"a":69,"b":70,"c":71,"d":72,"e":73,"f":74,"g":75,"h":76,"i":77,"j":78,"k":79,"l":80,"m":81,"n":82,"o":83,"p":84,"q":85,"r":86,"s":87,"t":88,"u":89,"v":90,"w":91,"x":92,"y":93,"z":94,"{":95,"|":96,"}":97,"~":98,"¡":99,"¢":100,"£":101,"¤":102,"¥":103,"¦":104,"§":105,"¨":106,"©":107,"ª":108,"«":109,"¬":110,"®":111,"¯":112,"°":113,"±":114,"²":115,"³":116,"´":117,"µ":118,"¶":119,"·":120,"¸":121,"¹":122,"º":123,"»":124,"¼":125,"½":126,"¾":127,"¿":128,"À":129,"Á":130,"Â":131,"Ã":132,"Ä":133,"Å":134,"Æ":135,"Ç":136,"È":137,"É":138,"Ê":139,"Ë":140,"Ì":141,"Í":142,"Î":143,"Ï":144,"Ð":145,"Ñ":146,"Ò":147,"Ó":148,"Ô":149,"Õ":150,"Ö":151,"×":152,"Ø":153,"Ù":154,"Ú":155,"Û":156,"Ü":157,"Ý":158,"Þ":159,"ß":160,"à":161,"á":162,"â":163,"ã":164,"ä":165,"å":166,"æ":167,"ç":168,"è":169,"é":170,"ê":171,"ë":172,"ì":173,"í":174,"î":175,"ï":176,"ð":177,"ñ":178,"ò":179,"ó":180,"ô":181,"õ":182,"ö":183,"÷":184,"ø":185,"ù":186,"ú":187,"û":188,"ü":189,"ý":190,"þ":191,"ÿ":192,"Ā":193,"ā":194,"Ă":195,"ă":196,"Ą":197,"ą":198,"Ć":199,"ć":200,"Ĉ":201,"ĉ":202,"Ċ":203,"ċ":204,"Č":205,"č":206,"Ď":207,"ď":208,"Đ":209,"đ":210,"Ē":211,"ē":212,"Ĕ":213,"ĕ":214,"Ė":215,"ė":216,"Ę":217,"ę":218,"Ě":219,"ě":220,"Ĝ":221,"ĝ":222,"Ğ":223,"ğ":224,"Ġ":225,"ġ":226,"Ģ":227,"ģ":228,"Ĥ":229,"ĥ":230,"Ħ":231,"ħ":232,"Ĩ":233,"ĩ":234,"Ī":235,"ī":236,"Ĭ":237,"ĭ":238,"Į":239,"į":240,"İ":241,"ı":242,"Ĳ":243,"ĳ":244,"Ĵ":245,"ĵ":246,"Ķ":247,"ķ":248,"ĸ":249,"Ĺ":250,"ĺ":251,"Ļ":252,"ļ":253,"Ľ":254,"ľ":255,"Ŀ":256,"ŀ":257,"Ł":258,"ł":259,"Ń":260,"à¤":261,"Ġà¤":262,"à¥":263,"à¤¾":264,"à¥ĩ":265,"à¤°":266,"Ġà¤ķ":267,"à¥Ģ":268,"à¤¨":269,"à¤¿":270,"à¤¹":271,"à¤ķ":272,"à¤Ĥ":273,"à¥į":274,"à¤¸":275,"à¥¤":276,"à¥ĭ":277,"à¤¤":278,"à¤²":279,"Ġà¤¸":280,"à¥ģ":281,"Ġà¤¹":282,"à¤¯":283,"Ġà¤®":284,"à¥Ī":285,"Ġà¤¬":286,"Ġà¤ī":287,"Ġà¤¥":288,"à¤®":289,"Ġà¤ª":290,"Ķà¤°":291,"Ġà¤Ķà¤°":292,"Ġà¤²":293,"Ġà¤¦":294,"à¤¾à¥¤":295,"Ġà¤µ":296,"Ġà¤¨":297,"à¤¦":298,"à¤ª":299,"ıà¤ķ":300,"Ġà¤ħ":301,"Ġà¤ıà¤ķ":302,"à¤¼":303,"Ġà¤īà¤¸":304,"à¤¡":305,"à¥ĩà¤Ĥ":306,"Ġà¤ľ":307,"Ġà¤Ĺ":308,"à¥Ĥ":309,"à¤Ĺ":310,"Ġà¤ķà¤°":311,"Ġà¤µà¤¹":312,"Ġà¤ĸ":313,"à¥ĭà¤Ĥ":314,"à¤ı":315,"Ġà¤ļ":316,"à¤Ł":317,"à¤ĸ":318,"à¤µ":319,"à¤¶":320,"à¤¬":321,"à¤ľ":322,"Ġà¤°":323,"à¤ļ":324,"Ġà¤Ĩ":325,"à¥Īà¤Ĥ":326,"à¤ªà¤¨":327,"Ġà¤ħà¤ªà¤¨":328,"Ġà¤īà¤¨":329,"Ġà¤¤":330,"à¥Ģà¥¤":331,"Ġà¤ķà¤¹":332,"à¤¾,":333,"Ġà¤¯":334,"à¤Ľ":335,"à¥Ģà¤Ĥ":336,"Ġà¤ĩ":337,"Ġà¤¬à¤¹":338,"Ġà¤īà¤¸à¤¨":339,"à¤¥":340,"à¥Īà¥¤":341,"à¤Ī":342,"Ġà¤Ń":343,"Ġà¤¯à¤¹":344,"Ġà¤¨à¤¹":345,"Ġà¤Ł":346,"à¤ģ":347,"Ġà¤ªà¤°":348,"Ġà¤°à¤¹":349,"Ġ\"":350,"à¥ī":351,"Ġà¤ĩà¤¸":352,"à¤¾à¤ģ":353,"Ġà¤«":354,"à¥Īà¤Ĥà¥¤":355,"Ġà¤ķà¤°à¤¨":356,"Ġà¤īà¤¸à¤ķ":357,"Ġà¤Ľ":358,"Ġà¤Ĺà¤¯":359,"Ġà¤ķà¤°à¤¤":360,"Ġà¤¸à¤ķ":361,"à¤¹à¤¤":362,"à¥ĩà¥¤":363,"à¤·":364,"à¤Ń":365,"Ġà¤¸à¤ķà¤¤":366,"Ġà¤Ĩà¤ª":367,"Ġà¤¶":368,"à¤ıà¤ķ":369,"Ġà¤²à¤Ĺ":370,"Ġà¤²à¤¡":371,"à¤¼à¤¾":372,"à¤²à¤¨":373,"Ġà¤ªà¤¸":374,"à¤§":375,"Ġà¤¬à¤¡":376,"Ġà¤¡":377,"Ġà¤ĺ":378,"ĠĊ":379,"à¥Į":380,"à¤¹à¤°":381,"à¥Ģ,":382,"Ġà¤¹à¤®":383,"Ġà¤Ĺà¤Ī":384,"à¤«":385,"Ġà¤ļà¤²":386,"à¤¼à¥Ģ":387,"Ġà¤®à¤¹":388,"!\"":389,"à¤¾à¤Ĥ":390,"à¤Ŀ":391,"Ġà¤ħà¤ļ":392,"Ġà¤¬à¤¨":393,"Ġà¤§":394,"Ġà¤ªà¤¹":395,"à¤ł":396,"Ġà¤Ĺà¤ı":397,"Ġà¤ªà¤ķ":398,"Ġà¤ľà¤¬":399,"à¥ĩ,":400,"à¥ģà¤Ĥ":401,"Ġà¤¸à¤®":402,"à¤¦à¤°":403,"Ġà¤®à¤¹à¤¸":404,"Ġà¤®à¤ľ":405,"à¥Ī,":406,"à¤Ĩ":407,"à¤¼à¥ĩ":408,"Ġà¤Ĩà¤ªà¤ķ":409,"Ġà¤īà¤¨à¤ķ":410,"à¥Ĥà¤Ĥ":411,"à¤ī":412,"à¤¤à¤¨":413,"Ġà¤ĺà¤°":414,"à¤¦à¤¦":415,"Ġà¤®à¤¦à¤¦":416,"?\"":417,"à¤¢":418,"à¤ĩ":419,"à¤ķà¤°":420,"Ġà¤ĵ":421,"à¤ħ":422,"Ġà¤¤à¤ķ":423,"Ġà¤īà¤¤":424,"à¤ªà¤¸":425,"Ġà¤¹à¤°":426,"à¤¾!":427,"Ġà¤ķà¤¹à¤¤":428,"à¤ĸà¤¨":429,"Ġ-":430,"à¤¸à¤²":431,"Ġà¤ªà¤¤":432,"Ġà¤¸à¤Ń":433,"Ġà¤ĵà¤°":434,"Ġà¤®à¤®":435,"Ġà¤Ĺà¤²":436,"à¤¨à¤¤":437,"à¤ĸà¤¤":438,"Ġà¤ħà¤¨":439,"à¤°à¤¤":440,"à¤¿à¤Ĥ":441,"à¤¯à¤µ":442,"à¤°à¤ķ":443,"Ġà¤¸à¤¬":444,"Ġà¤ĩà¤¤à¤¨":445,"Ġà¤Ĺà¤°":446,"à¤£":447,"à¤®à¤ķ":448,"Ġâ":449,"à¤Ĺà¤²":450,"Ġà¤Ĩà¤¯":451,"Ġà¤ĩà¤¸à¤²":452,"Ġà¤¡à¤°":453,"à¤¦à¤®":454,"à¤ľà¤¨":455,"Ġà¤¤à¤°":456,"à¤īà¤¸":457,"à¥Īà¤Ĥ,":458,"à¤¸à¤°":459,"à¥ĩà¤Ĥ,":460,"à¤²à¤¤":461,"Ġà¤¬à¤ļ":462,"à¤¨à¤ķ":463,"Ġà¤ķà¤Ń":464,"à¤µà¤°":465,"Ġà¤ł":466,"Ġà¤ħà¤¬":467,"Ġà¤¸à¤®à¤¯":468,"Ġà¤Ŀ":469,"Ġà¤ĩà¤¸à¤ķ":470,"Ġà¤ľà¤²":471,"Ġà¤°à¤ĸ":472,"Ġà¤ªà¤ķà¤¡":473,"Ġà¤īà¤¡":474,"à¤¯à¤¹":475,"Ġà¤§à¤¨":476,"à¥ĥ":477,"Ġà¤Ńà¤°":478,"Ĥ¬":479,"ĠâĤ¬":480,"Ġà¤¬à¤¤":481,"à¥ĭ,":482,"Ġà¤¤à¤°à¤¹":483,"à¤¤à¤°":484,"Ġà¤ħà¤§":485,"Ġà¤Ĩà¤¦à¤®":486,"Ġà¤ı":487,"à¥¤\"":488,"Ġà¤¸à¤¬à¤¸":489,"Ġà¤ªà¤¹à¤²":490,"à¤ĵ":491,"à¤Łà¤°":492,"à¤¼à¤¿":493,"à¥Īà¥¤\"":494,"Ġà¤īà¤ł":495,"Ġà¤ļà¤®à¤ķ":496,"Ġà¤ĸà¤°":497,"Ġà¤ķà¤®":498,"Ġà¤¤à¤¬":499,"Ġà¤Ĩà¤ķ":500,"à¥Īà¤Ĥà¥¤\"":501,"Ġà¤ħà¤²":502,"à¤ªà¤°":503,"Ġà¤Ĭ":504,"à¤¤à¤²":505,"à¤¯à¤ķ":506,"à¤ªà¤ķ":507,"à¤¾à¤ģ,":508,"à¥Ī!\"":509,"Ġà¤¬à¤Ĺ":510,"à¥Īà¤Ĥ?\"":511,"à¤¨à¤µà¤°":512,"à¤ªà¤¯":513,"Ġà¤°à¤¹à¤¨":514,"à¥Ģ!":515,"Ġà¤ħà¤Ń":516,"Ġà¤Ĩà¤µ":517,"Ġà¤¦à¤°":518,"à¤µà¤§":519,"Ġà¤Ĩà¤¶":520,"à¤¹à¤¤à¤°":521,"Ġà¤¸à¤¹":522,"à¤ļà¤°":523,"Ġà¤Ĩà¤¨":524,"Ġà¤ķà¤®à¤°":525,"à¤ľà¤¬":526,"Ġà¤¶à¤°":527,"à¤®à¤¤":528,"à¤µà¤¨":529,"Ġà¤ķà¤Ī":530,"Ġà¤ľà¤Ĺ":531,"à¤°à¤®":532,"à¤µà¤²":533,"Ġà¤°à¤¹à¤¤":534,"Ġà¤Ĳ":535,"à¤µà¤¹":536,"à¤¨à¤¨":537,"Ġà¤ľà¤Ĺà¤¹":538,"à¤¾à¥¤\"":539,"Ġà¤¤à¤²":540,"à¤ķà¤¡":541,"à¥Ģà¤Ĥà¥¤":542,"Ġà¤¬à¤°":543,"à¥Ģà¤Ĥ,":544,"Ġà¤°à¤¸":545,"Ġà¤ľà¤®":546,"Ġà¤¦à¤¯":547,"à¤Ĺà¤¨":548,"Ġà¤¨à¤¯":549,"à¤Łà¤¨":550,"à¥Ī?\"":551,"à¤¹à¤¸":552,"à¤¤à¤ľ":553,"à¤ĺ":554,"Ġà¤ĩà¤¸à¤¨":555,"à¤īà¤¨":556,"à¤ķà¤²":557,"Ġà¤ľà¤µ":558,"Ġà¤ļà¤¢":559,"à¥Ĥà¤ģ":560,"Ġà¤Ĳà¤¸":561,"à¤Ĺà¤¤":562,"Ġà¤ļà¤®à¤ķà¤¦":563,"à¤ķà¤¨":564,"à¤ļà¤²":565,"Ġà¤¨à¤ı":566,"à¤§à¤¨":567,"Ġà¤¹à¤µ":568,"Ģĭ":569,"Ġà¤ªà¤¡":570,"Ġà¤¬à¤ľ":571,"Ġà¤Ĩà¤Ĺ":572,"à¤īà¤¸à¤ķ":573,"à¥ĩà¤Ĥà¥¤":574,"Ġà¤ķà¤ª":575,"Ġà¤¦à¤°à¤µ":576,"à¥Īà¤Ĥ!\"":577,"à¤°à¤ľ":578,"à¤ħà¤ļ":579,"à¤¾!\"":580,"à¤¸à¤ķ":581,"Ġà¤¢":582,"à¤Ľà¤²":583,"à¤·à¤®":584,"à¤ĩà¤¡":585,"Ġà¤Ĩà¤°":586,"à¤®à¤¨":587,"à¤¸à¤¨":588,"Ġà¤°à¤ĸà¤¨":589,"Ġà¤¸à¤®à¤Ŀ":590,"à¤¯à¤¦":591,"Ġà¤Ĭà¤ªà¤°":592,"à¤ıà¤Ĺ":593,"à¤ļà¤¤":594,"Ġà¤Ĺà¤²à¤¤":595,"à¤®à¤®":596,"à¤¯à¤°":597,"Ġà¤¨à¤Ī":598,"Ġà¤ıà¤®":599,"à¤¸à¤¤":600,"Ġà¤īà¤ªà¤¯":601,"à¤ľà¤°":602,"Ġà¤ħà¤¦":603,"à¤Ĩà¤ª":604,"à¥Ĥà¤Ĥà¥¤":605,"à¤¤à¤²à¤¬":606,"Ġà¤®à¤¹à¤¤":607,"Ġà¤®à¤¤à¤²à¤¬":608,"Ġà¤īà¤¸à¤¸":609,"à¥Ī!":610,"à¤ļà¤¨":611,"à¤Ĺà¤°":612,"Ġà¤ļà¤Ł":613,"à¤¼à¥ĭà¤Ĥ":614,"à¥Ī,\"":615,"Ġà¤ħà¤ľ":616,"Ġà¤²à¤Ĺà¤¤":617,"à¤¨à¤¹":618,"Ġà¤®à¤Ľà¤²":619,"Ġà¤®à¤¤":620,"à¤¤à¤µ":621,"à¤¯à¤®":622,"à¤Łà¤ķ":623,"à¤µà¤ª":624,"Ġà¤«à¤°":625,"à¤¦à¤¨":626,"à¤ļà¤ķ":627,"à¤¹à¤®":628,"Ġà¤ľà¤°":629,"Ġà¤®à¤ľà¤¬":630,"à¥ĭà¥¤":631,"Ġà¤¬à¤¢":632,"Ġà¤ħà¤²à¤µ":633,"Ġà¤¤à¤¸":634,"Ġà¤¬à¤¸":635,"à¤ĩà¤ķ":636,"à¤¶à¤¨":637,"Ġà¤ħà¤ķ":638,"à¤®à¤¸":639,"Ġà¤Ĩà¤ľ":640,"Ġà¤Ĩà¤¤":641,"Ġà¤ĸà¤°à¤Ĺ":642,"à¤ħà¤¨":643,"à¤¦à¤²":644,"Ġà¤ļà¤²à¤¤":645,"Ġà¤ķà¤ªà¤¡":646,"Ġà¤¸à¤«":647,",\"":648,"Ġà¤Ĩà¤Ī":649,"Ġà¤ħà¤²à¤Ĺ":650,"Ġà¤¸à¤µ":651,"Ġà¤²à¤¹à¤°":652,"Ġà¤īà¤ª":653,"à¤°à¤¨":654,"Ġà¤Ĩà¤ķà¤°":655,"Ġà¤ķà¤ł":656,"Ġà¤ľà¤¹":657,"à¤īà¤¸à¤¨":658,"à¤ķà¤Ń":659,"à¥ĭ!\"":660,"Ġà¤ħà¤¸":661,"à¤°à¤¶":662,"Ġà¤¥à¤ķ":663,"à¤²à¤¡":664,"Ġà¤īà¤ľ":665,"Ġà¤ĩà¤¸à¤®":666,"à¥Īà¤Ĥ,\"":667,"à¤¬à¤²":668,"à¤ĩà¤¸à¤²":669,"Ġà¤īà¤®":670,"à¤¬à¤¹":671,"à¤ħà¤°":672,"Ġà¤¨à¤°à¤®":673,"Ġà¤§à¤ķ":674,"Ġà¤Ĩà¤¸":675,"à¤¯à¤ļà¤ķ":676,"à¤¬à¤°":677,"à¤ķà¤¤":678,"Ġà¤ķà¤²":679,"à¤®à¤¦":680,"à¤ĸà¤ķà¤°":681,"à¤¼à¤¾,":682,"à¤¸à¤®":683,"âĢĭ":684,"ĠâĢĭ":685,"ĠâĢĭâĢĭ":686,"Ġà¤Ĩà¤ªà¤¨":687,"Ġà¤¸à¤ªà¤¨":688,"à¤¢à¤ķ":689,"Ġà¤ªà¤¢":690,"à¥Ĥà¤Ĥà¥¤\"":691,"Ġà¤¸à¤¬à¤ķ":692,"à¤¤à¤ķ":693,"Ġà¤Ĩà¤ĸ":694,"Ġà¤Ľà¤¡":695,"à¤¼à¤¾à¥¤":696,"Ġà¤Łà¤¹":697,"Ġà¤ħà¤Ĺà¤°":698,"Ġà¤®à¤¹à¤²":699,"Ġà¤ļà¤ķ":700,"à¤Ľà¤¤":701,"à¤Ĩà¤ªà¤ķ":702,"Ġà¤ħà¤Ĺà¤²":703,"à¤ľà¤ķ":704,"à¤²à¤¬":705,"Ġà¤Ĩà¤Ń":706,"à¤°à¤¹":707,"Ġà¤¸à¤¹à¤®à¤¤":708,"Ġà¤¸à¤°":709,"Ġà¤Ĩà¤µà¤¶":710,"Ġà¤Ĩà¤ı":711,"à¤Ĺà¤ľ":712,"à¥Ĥà¤Ĥ?\"":713,"Ġà¤¸à¤¡":714,"Ġà¤īà¤¦":715,"à¤¹à¤¨à¤¤":716,"Ġà¤īà¤ļ":717,"à¤¯à¤ķà¤¤":718,"Ġà¤®à¤¸":719,"à¤¡à¤°":720,"à¤Ĭ":721,"Ġà¤īà¤²":722,"à¤ĩà¤¨":723,"à¤²à¤Ĺ":724,"à¥ĩ!":725,"à¤¾,\"":726,"à¤ĸà¤°":727,"à¤ŀ":728,"à¤ĩà¤¸à¤ķ":729,"Ġà¤ķà¤¡":730,"Ġà¤¬à¤¨à¤¨":731,"à¤¦à¤Ĺ":732,"à¥ĩà¥¤\"":733,"à¤·à¤ķ":734,"Ġà¤ķà¤¦à¤®":735,"à¤¼à¥ĭ":736,"à¤¨à¤¦":737,"\"à¥¤":738,"à¤¥à¤°":739,"Ġà¤ķà¤Ł":740,"à¤²à¤¹à¤°":741,"à¤Ĥà¥¤":742,"Ġà¤¶à¤¬":743,"Ġà¤ĸà¤¡":744,"Ġà¤Ĺà¤¹à¤°":745,"à¤°à¤£":746,"à¤¾:":747,"Ġà¤ªà¤¹à¤¨":748,"Ġà¤Ī":749,"à¤¾à¤ģà¥¤":750,"à¤¯à¤¨":751,"Ġà¤ıà¤¹à¤¸":752,"Ġà¤Ĺà¤¡":753,"Ġà¤Ŀà¤ªà¤ķ":754,"Ġà¤¬à¤¦":755,"à¤¾?\"":756,"Ġà¤¤à¤Ł":757,"à¤ķà¤Ł":758,"à¥Ģ!\"":759,"à¤ĸà¤Ń":760,"Ġà¤ĸà¤¤à¤°":761,"Ġà¤¹à¤²":762,"à¤¬à¤¡":763,"Ġà¤Ĩà¤ĩà¤¸à¤ķ":764,"à¤Ĺà¤¡":765,"Ġà¤Łà¤¹à¤²à¤¨":766,"Ġà¤¬à¤¹à¤¨":767,"Ħ¢":768,"ĠâĦ¢":769,"Ġà¤¶à¤¹à¤°":770,"Ġà¤ªà¤²":771,"Ã¢":772,"Ġà¤¬à¤¤à¤ĸ":773,"à¤ĺà¤°":774,"à¤°à¤¸":775,"à¤ħà¤Ĺà¤²":776,"à¤¸à¤ķà¤°":777,"Ġà¤ĸà¤ľ":778,"à¤¶à¤ķ":779,"à¥Įà¤Ĥ":780,"Ġà¤Ńà¤¯":781,"à¤§à¤°":782,"à¤¹à¤¨":783,"à¥ĭà¤Ĥ,":784,"à¤®à¤¡":785,"à¥ĩà¤Ĥà¥¤\"":786,"à¤ħà¤²à¤Ĺ":787,"à¤®à¤ļ":788,"Ġà¤¶à¤ķ":789,"à¤·à¤¸":790,"Ġà¤ĩà¤¶":791,"Ġà¤ļà¤²à¤¨":792,"à¤¼à¥Ĥ":793,"Ġà¤ķà¤¹à¤¨":794,"à¥ĭ?\"":795,"à¤·à¤£":796,"à¤®à¤²":797,"Ġà¤µà¤°":798,"à¥ĭ!":799,"à¤Łà¤¬":800,"Ġà¤¬à¤¦à¤²":801,"à¥Īà¤Ĥ?":802,"Ġà¤īà¤¨à¤¸":803,"à¤ªà¤¹à¤°":804,"Ġà¤«à¤²":805,"Ġà¤¨à¤¦":806,"à¤īà¤¨à¤ķ":807,"Ġà¤®à¤§":808,"Ġà¤ĸà¤¤à¤°à¤¨":809,"Ġà¤īà¤ªà¤¹":810,"Ġà¤ªà¤¹à¤¨à¤¨":811,"Ġà¤Ńà¤²":812,"à¤²à¤°":813,"Ġà¤°à¤ĸà¤¤":814,"Ġà¤ĩà¤ķà¤Ł":815,"Ġà¤ĩà¤¸à¤¸":816,"à¤ľà¤²":817,"Ġà¤°à¤¹à¤¸":818,"Ġà¤¡à¤°à¤¤":819,"Ġà¤Ĩà¤ĵ":820,"Ġà¤¬à¤Łà¤¨":821,"Ġà¤ĸà¤¤":822,"à¤¬à¤¨":823,"à¥Ĥà¤Ĥ,":824,"à¥ĭà¥¤\"":825,"Ġà¤Ĩà¤¸à¤ª":826,"à¤ĩà¤¸":827,"Ġà¤ıà¤²":828,"à¥Ģà¥¤\"":829,"Ġà¤ķà¤¸à¤ķà¤°":830,"à¤Łà¤²":831,"Ġà¤®à¤ķ":832,"à¤¯à¤¸":833,"à¤¨à¤®":834,"Ġà¤¦à¤¸":835,"Ġà¤¤à¤°à¤«":836,"à¤¯à¤µà¤¹":837,"à¤²à¤¯":838,"à¤¯à¤¬":839,"Ġà¤Ĩà¤ªà¤¸":840,"à¤²à¤ļ":841,"à¤Ľà¤µ":842,"à¥Ģ,\"":843,"à¥Īà¤Ĥ!":844,"à¤ªà¤¤":845,"Ġà¤Ńà¤°à¤¨":846,"à¤ķà¤¹":847,"Ġà¤ļà¤®":848,"à¤¼à¥Ģ,":849,"à¤µà¤¤":850,"à¥Ĥà¤ģ!\"":851,"Ġà¤ĳ":852,"Ġà¤ķà¤¬":853,"Ġà¤®à¤ļ":854,"à¥Ĥà¤Ĥ!\"":855,"à¤¬à¤¤":856,"à¤µà¤¸":857,"à¥Ī?":858,"à¤¦à¤¤":859,"à¤°à¤§à¤¨":860,"Ġà¤®à¤¶":861,"Ġà¤¸à¤ļ":862,"Ġà¤ªà¤¨":863,"à¥ĩ?\"":864,"à¤¡à¤²":865,"Ġà¤ĸà¤Ł":866,"Ġà¤®à¤¨":867,"à¤¯à¤¶":868,"à¤¤à¤¬":869,"Ġà¤¯à¤¦":870,"Ġ3":871,"à¥ĩ!\"":872,"à¤¯à¤²":873,"à¤¹à¤Ł":874,"Ġà¤¯à¤ķ":875,"Ġà¤īà¤¤à¤¨":876,"à¤¥à¤¨":877,"à¤¡à¤µ":878,"à¤¸à¤¸":879,"à¤Ľà¤¨":880,"à¤Ķà¤°":881,"à¤°à¤µ":882,"à¤Łà¤¤":883,"à¤²à¤ļà¤¸":884,"à¤ıà¤®":885,"à¤¨à¤ķà¤°":886,"Ġà¤ªà¤°à¤µ":887,"à¤°à¤Ń":888,"Ġà¤ľà¤¨":889,"à¥Ģ?\"":890,"à¤µà¤¸à¤¨":891,"à¤¢à¤¨":892,"Ġà¤ļà¤®à¤ķà¤¤":893,"Ġà¤°à¤µ":894,"à¤ªà¤Ł":895,"à¤¬à¤¸":896,"Ġà¤¨à¤®à¤¸":897,"Ġà¤°à¤ļà¤¨":898,"à¤®à¤°":899,"à¤¬à¤ļ":900,"Ġà¤¹à¤¥":901,"à¤°à¤¦à¤°":902,"Ġà¤īà¤¤à¤°":903,"à¤ķà¤¦à¤®":904,"à¤¾à¤Ĥ,":905,"Ġà¤¸à¤²":906,"Ġà¤ħà¤®":907,"à¤ķà¤¸":908,"à¤ķà¤°à¤£":909,"Ġà¤ħà¤¸à¤¹":910,"Ġà¤¸à¤®à¤¸":911,"à¤¯à¤µà¤¸":912,"Ġà¤¹à¤®à¤¨":913,"à¤¨à¤°":914,"Ġà¤Ĩà¤²":915,"à¤ĩà¤²":916,"Ġà¤īà¤Ľ":917,"Ġà¤īà¤ªà¤ķà¤°à¤£":918,"Ġà¤°à¤Ĺà¤¡":919,"Ġà¤ĺà¤¬à¤°":920,"Ġà¤Ľà¤¤":921,"à¤ħà¤¬":922,"à¥Ĥà¤Ĥ,\"":923,"à¤²à¤Ń":924,"Ġà¤²à¤ª":925,"Ġà¤µà¤¸":926,"à¤¼à¥ĩ,":927,"Ġà¤¨à¤²":928,"Ġà¤ªà¤Ł":929,"à¤¹à¤¦":930,"à¤®à¤Ĺ":931,"Ġà¤ĩà¤²":932,"Ġ'":933,"à¤ĩà¤µà¤°":934,"à¥Ĥà¤ģ,":935,"Ġà¤®à¤ķà¤¡":936,"Ġà¤®à¤Ĺ":937,"à¤µà¤ķ":938,"à¤¨à¤Ł":939,"Ġà¤¤à¤¯":940,"à¤ļà¤¡":941,"Ġà¤¶à¤¹à¤¦":942,"Ġà¤ĩà¤ļ":943,"Ġà¤¹à¤¡":944,"à¤īà¤§à¤°":945,"Ġà¤ĩà¤§à¤°":946,"à¤ĩà¤µ":947,"Ġà¤ĵà¤µà¤¨":948,"Ġà¤²à¤ķà¤¡":949,"à¥ĩà¤Ĥ!\"":950,"Ġà¤ħà¤²à¤®":951,"à¥Ĥà¤ģà¥¤":952,"à¤²à¤ķ":953,"à¤Ĩà¤¦à¤®":954,"à¥Ģà¤Ĥ!":955,"à¤ªà¤¡":956,"Ġà¤²à¤Łà¤ķ":957,"à¤¤à¤ĸ":958,"Ġà¤¨à¤ľ":959,"Ġà¤Ĩà¤§":960,"Ġà¤Ľà¤ª":961,"Ġà¤¬à¤Ĺà¤²":962,"Ġà¤ħà¤µ":963,"Ġà¤īà¤§":964,"Ġà¤¸à¤®à¤Ŀà¤¤":965,"Ġà¤īà¤¨à¤®":966,"à¤Ńà¤Ĺ":967,"à¤ªà¤£":968,"à¤ĵà¤¹":969,"à¤ĺà¤Łà¤¨":970,"Ġà¤µà¤«":971,"Ġà¤²à¤Ĺà¤Ńà¤Ĺ":972,"à¤°à¤¯":973,"Ġà¤¨à¤°":974,"à¤²à¤®":975,"Ġà¤ļà¤¬":976,"Ġà¤¸à¤ľ":977,"à¤łà¤¤":978,"à¤¼à¥Ģà¥¤":979,"Ġà¤Ĩà¤®":980,"à¤®à¤¯":981,"Ġà¤Ĺà¤¤":982,"à¤¤à¤®":983,"Ġà¤¬à¤²":984,"à¤¸à¤°à¤£":985,"Ġà¤ĩà¤¨":986,"à¤¾?":987,"Ġà¤¸à¤«à¤²":988,"Ġà¤Ĩà¤Ł":989,"Ġà¤Ńà¤¯à¤Ń":990,"à¤ķà¤ª":991,"à¤¤à¤¤":992,"à¤°à¤¸à¤¨":993,"Ġà¤ĩà¤®":994,"Ġà¤ħà¤¸à¤Ń":995,"à¤łà¤¨":996,"Ġà¤¬à¤¦à¤¬":997,"à¤¸à¤«":998,"Ġà¤Īà¤®":999,"Ġà¤Ĺà¤¹à¤¨":1000,"Ġà¤¬à¤¦à¤¸":1001,"à¥ģà¤ģ":1002,"Ġà¤ļà¤ĸ":1003,"à¤¯à¤®à¤¯":1004,"Ġà¤ķà¤µà¤°":1005,"Ġà¤Ķà¤°à¤¤":1006,"Ġà¤ĺà¤¡":1007,"à¤ľà¤¨à¤ķ":1008,"Ġà¤Ĳà¤²":1009,"à¤¾à¤ģ!":1010,"à¤Ĩà¤ªà¤¨":1011,"Ġà¤ħà¤¤":1012,"à¤µà¤¶":1013,"Ġà¤Ĩà¤¹":1014,"à¤¤à¤Ń":1015,"Ġà¤ħà¤¸à¤²":1016,"à¥ĩ,\"":1017,"à¤²à¤¦":1018,"ĠÃ¢":1019,"Ġà¤ªà¤¶":1020,"Ġà¤Ĩà¤¹à¤¤":1021,"Ġà¤Īà¤°":1022,"Ġà¤¨à¤ķà¤²":1023,"Ġà¤ķà¤ķ":1024,"Ġà¤ªà¤¤à¤²":1025,"Ġà¤°à¤ķ":1026,"à¤«à¤¨":1027,"à¤²à¤¨à¤¸":1028,"Ġà¤ıà¤ķà¤¦à¤®":1029,"à¤°à¤®à¤ļ":1030,"Ġà¤¦à¤µ":1031,"Ġà¤ļà¤¤":1032,"Ġà¤īà¤¬":1033,"à¥ĭ,\"":1034,"Ġà¤Ĺà¤¨":1035,"à¤łà¤°":1036,"Ġà¤®à¤¦à¤¦à¤Ĺ":1037,"à¤«à¤²":1038,"à¤«à¤¡":1039,"à¤ĩà¤Ł":1040,"à¤°à¤¦":1041,"à¤¼à¥ĩà¥¤":1042,"à¤¶à¤¹":1043,"Ġà¤Ĭà¤¬":1044,"à¤¼à¥Ī":1045,"Ġà¤¬à¤ķ":1046,"à¤¼à¥ĩà¤Ĥ":1047,"Ġà¤ķà¤®à¤ľ":1048,"Ġà¤²à¤ķ":1049,"Ġà¤¦à¤¬":1050,"Ġt":1051,"à¥ĭà¤Ĥà¥¤":1052,"Ġà¤®à¤Ĺà¤°à¤®à¤ļ":1053,"Ġà¤Ĩà¤²à¤¸":1054,"Ġà¤¦à¤¹":1055,"à¤¶à¤ķà¤¶":1056,"à¤Łà¤°à¤ª":1057,"à¤ķà¤²à¤¨":1058,"Ġà¤¨à¤ķ":1059,"à¤¿,":1060,"Ġà¤Łà¤ķà¤°":1061,"à¤¡à¤¬":1062,"à¤¯à¤¤":1063,"Ġà¤¤à¤®":1064,"Ġà¤ľà¤¬à¤ķ":1065,"à¤®à¤¬à¤¤":1066,"Ġà¤¡à¤ķ":1067,"Ġà¤°à¤¸à¤¦":1068,"à¤ľà¤¨à¤¬":1069,"Ġà¤ıà¤¨":1070,"à¤ĥ":1071,"à¥Ģà¤Ĥ!\"":1072,"Ġà¤ļà¤°":1073,"à¤°à¤ľà¤®":1074,"Ġà¤īà¤²à¤Ŀ":1075,"à¤µà¤ļ":1076,"Ġà¤¤à¤²à¤µ":1077,"à¤°à¤¬":1078,"à¤ªà¤ļ":1079,"Ġà¤ľà¤¡":1080,"Ġà¤ķà¤Ľ":1081,"à¥Ī:":1082,"à¤®à¤¹":1083,"à¤¯à¤¯à¤¨":1084,"Ġà¤Łà¤¹à¤¨":1085,"à¤Ńà¤µ":1086,"à¤Ŀà¤¸":1087,"Ġà¤ķà¤°à¤ķ":1088,"Ġà¤ħà¤ľà¤¨à¤¬":1089,"à¤ħà¤ªà¤¨":1090,"à¥ĩà¤Ĥ,\"":1091,"à¤¯à¤°à¤®":1092,"Ġà¤«à¤¡":1093,"à¤¸à¤ª":1094,"à¤ĸà¤Ł":1095,"à¤Ĳ":1096,"à¤¶à¤°":1097,"Ġà¤ĸà¤Łà¤ĸà¤Ł":1098,"à¤¾à¤ģ!\"":1099,"à¤²à¤µ":1100,"à¤Ĺà¤«à¤²":1101,"à¤²à¤ķà¤°":1102,"à¤¡à¤ķ":1103,"à¤ħà¤ª":1104,"à¥Ĥà¤ģà¥¤\"":1105,"à¤ĸà¤°à¤Ĺ":1106,"Ġà¤ĸà¤²":1107,"à¤ıà¤²":1108,"à¤¶à¤¬":1109,"à¥ĭ?":1110,"à¤ªà¤ķà¤²":1111,"Ġà¤ķà¤¦":1112,"à¤¨à¤®à¤¸":1113,"à¤ªà¤·":1114,"Ġà¤īà¤²à¤Ŀà¤¨":1115,"Ġà¤¹à¤Ł":1116,"Ġo":1117,"à¥Ī\"à¥¤":1118,"Ġà¤¬à¤ķà¤°":1119,"Ġà¤«à¤µ":1120,"Ġà¤ħà¤Łà¤ķ":1121,"Ġà¤¦à¤«à¤¨":1122,"à¤ªà¤°à¤µ":1123,"tÃ¢":1124,"à¤¦à¤ķ":1125,"à¥Ĥà¤ģ?\"":1126,"à¤¬à¤ķ":1127,"Ġth":1128,"à¤ĸà¤¦":1129,"Ġi":1130,"Ġà¤ĳà¤ķ":1131,"Ġà¤ħà¤Ł":1132,"Ġà¤¸à¤¸":1133,"Ġà¤Ĩà¤¡":1134,"Ġà¤Łà¤®":1135,"Ġy":1136,"à¤Łà¤¸":1137,"Ġà¤¨à¤®à¤ķ":1138,"Ġà¤²à¤ļ":1139,"à¤ķà¤¬":1140,"Ġà¤īà¤¸à¤®":1141,"ĠâĢ":1142,"Ġà¤¡à¤°à¤¨":1143,"Ġà¤®à¤ķà¤Ī":1144,"à¤°à¤²":1145,"à¤¦à¤°à¤Ĺ":1146,"Ġà¤¬à¤¦à¤²à¤¨":1147,"ĠâĤ¬,":1148,"à¤¼,":1149,"es":1150,"à¤¯à¤ľà¤¨à¤ķ":1151,"Ġà¤īà¤ªà¤²à¤¬":1152,"Ġà¤ħà¤¸à¤¹à¤ľ":1153,"Ġà¤®à¤°":1154,"Ġà¤¨à¤·":1155,"Ġà¤¸à¤®à¤°":1156,"Ġà¤Ĩà¤ıà¤Ĺ":1157,"à¤ķà¤¶":1158,"à¥Ĥ,":1159,"à¤¸à¤²à¤¨":1160,"à¤¾à¤ģ,\"":1161,"Ġà¤ļà¤¹":1162,"Ġà¤¦à¤²":1163,"Ġà¤¨à¤ľà¤°":1164,"Ġà¤¹à¤«":1165,"Ġà¤ħà¤ĸà¤°":1166,"à¤ķà¤²à¤¤":1167,"à¤¸à¤¬":1168,"Ġà¤®à¤«":1169,"Ġà¤ĵà¤ī":1170,"Ġà¤¨à¤Ł":1171,"à¤¯à¤²à¤Ł":1172,"Ġà¤ķà¤ļà¤°":1173,"Ġà¤Łà¤Ł":1174,"Ġà¤Ĺà¤£":1175,"à¤ĺà¤²":1176,"Ġà¤īà¤Ľà¤²":1177,"Ġà¤Ĺà¤®":1178,"à¤ıà¤¡":1179,"Ġà¤Łà¤ķ":1180,"à¤ĩà¤ª":1181,"à¤¶à¤ª":1182,"à¤Ĩà¤ľ":1183,"à¤¦à¤°à¤¤":1184,"Ġà¤ħà¤¨à¤²":1185,"à¤¾\"à¥¤":1186,"Ġà¤¢à¤ķ":1187,"Ġà¤ħà¤ª":1188,"Ġà¤ľà¤¶":1189,"Ġà¤¥à¤ª":1190,"Ġà¤ĩà¤¨à¤ķ":1191,"à¤ļà¤¤à¤°":1192,"Ġà¤¬à¤¹à¤¸":1193,"à¤ıà¤Łà¤°":1194,"Ġà¤¤à¤°à¤¬":1195,"à¤Ĥ,":1196,"Ġà¤ļà¤¶":1197,"à¤ĵà¤ī":1198,"à¤µà¤Ł":1199,"Ġà¤«à¤Ł":1200,"à¥ĩ?":1201,"Ġà¤ĩà¤¤":1202,"Ġà¤¸à¤¤à¤°":1203,"Ġà¤µà¤ľà¤¨":1204,"à¤ªà¤¹":1205,"à¤¶à¤²":1206,"Ġà¤ĩà¤°":1207,"à¤Ĩà¤°":1208,"ĠâĢĿ":1209,"à¤ħà¤²à¤µ":1210,"Ġà¤ħà¤¨à¤ª":1211,"Ġà¤®à¤¶à¤°":1212,"Ġà¤²à¤Ĺà¤¨":1213,"Ġà¤Ĭà¤°":1214,"à¥ĩà¤Ĥ!":1215,"Ġà¤ķà¤²à¤®":1216,"Ġà¤¸à¤ª":1217,"à¤¥à¤Łà¤¬":1218,"à¥Ĥà¤Ĥ?":1219,"Ġà¤Ŀà¤Ĺà¤¡":1220,"Ġtha":1221,"à¤«à¤°à¤¤":1222,"Ġà¤¨à¤«à¤°à¤¤":1223,"à¤Ĺà¤ł":1224,"à¤īà¤¡à¤°":1225,"à¤ĩà¤¯":1226,"Ġà¤¬à¤Ł":1227,"Ġà¤ľà¤²à¤¨":1228,"Ġà¤ķà¤¶":1229,"à¤®à¤¸à¤®à¤°":1230,"Ġà¤®à¤°à¤®":1231,"Ġà¤ıà¤µ":1232,"Ġà¤īà¤łà¤¤":1233,"à¤¹à¤®à¤¨":1234,"à¤Łà¤°à¤¸":1235,"Ġà¤¬à¤¹à¤°":1236,"Ġà¤Łà¤Ĺ":1237,"à¤·à¤°":1238,"à¤¢à¤¤":1239,"Ġà¤ªà¤¹à¤¨à¤¤":1240,"à¥Ĥà¤Ĥ!":1241,"Ġà¤Ńà¤°à¤¤":1242,"Ġà¤°à¤¤":1243,"à¤¨à¤µ":1244,"Ġà¤ĵà¤Łà¤°":1245,"Ġà¤ıà¤ķà¤ľ":1246,"Ġà¤ªà¤¹à¤ļ":1247,"à¤°à¤®à¤°":1248,"Ġà¤ħà¤ľà¤µ":1249,"Ġà¤Ĩà¤¦":1250,"Ġà¤¹à¤²à¤ķ":1251,"à¤Ĺà¤®":1252,"Ġà¤¨à¤ľà¤°à¤ħ":1253,"Ġà¤ħà¤¡":1254,"Ġà¤ıà¤ķà¤¤":1255,"Ġà¤Ńà¤Łà¤ķ":1256,"Ġà¤ļà¤®à¤ķà¤¨":1257,"à¥Īà¤Ĥ\"à¥¤":1258,"Ġà¤ķà¤Łà¤µ":1259,"à¤¾à¤ģ?\"":1260,"Ġà¤ĳà¤°":1261,"à¤ĩà¤¬":1262,"à¤Ĺà¤®à¤°à¤®à¤°":1263,"Ġà¤Ĭà¤¨":1264,"Ġà¤ıà¤¡":1265,"Ġà¤ķà¤µ":1266,"à¤¨à¤¯":1267,"à¥Ģ:":1268,"Ġà¤ĵà¤²":1269,"à¤ľà¤µà¤²":1270,"à¤°à¤ª":1271,"à¤ĺà¤Ł":1272,"à¥Ĥà¤ģ!":1273,"à¤¾;":1274,"à¤ľà¤¤":1275,"à¤ķà¤ħà¤ª":1276,"..":1277,"Ġà¤¹à¤¸":1278,"Ġà¤Ńà¤°à¤µ":1279,"à¤¨à¤¹à¤°":1280,"à¤Ĺà¤¯":1281,"Ġà¤ĵà¤ķ":1282,"à¤ĵà¤ª":1283,"à¤Ĳà¤²":1284,"mm":1285,"Ġà¤¸à¤®à¤Ŀà¤¨":1286,"à¤Ĩà¤ĸ":1287,"à¥Ģ?":1288,"à¤¨à¤ľà¤¨à¤ķ":1289,"à¤µà¤¡":1290,"à¤ĺà¤¤":1291,"à¤¦à¤¯":1292,"à¤ªà¤°à¤¹":1293,"Ġà¤ħà¤¸à¤¹à¤®à¤¤":1294,"Ġà¤¸à¤¨":1295,"Ġà¤¥à¤°":1296,"Ġà¤Ĩà¤¦à¤°":1297,"Ġà¤ĵà¤ª":1298,"à¤¬à¤Ĺ":1299,"à¤°à¤ĸ":1300,"Ġà¤ªà¤¦à¤ķ":1301,"Ġà¤°à¤¬à¤°":1302,"à¤īà¤²":1303,"Ġà¤¢à¤²à¤¨":1304,"Ġà¤Ĺà¤¦":1305,"à¤®à¤¦à¤¦":1306,"Ġà¤īà¤łà¤¨":1307,"Ġà¤Ĳà¤¨":1308,"Ġà¤¦à¤²à¤¦à¤²":1309,"à¤¸à¤¬à¤¸":1310,"Ġà¤ľà¤Ī":1311,"Ġà¤¤à¤Ń":1312,"à¤łà¤ķà¤°":1313,"à¤ĺà¤¨":1314,"ĠI":1315,"Ġà¤īà¤ªà¤¨":1316,"Ġà¤Ńà¤µ":1317,"Ġà¤ıà¤ª":1318,"Ġà¤Łà¤¬":1319,"à¤Ĺà¤µ":1320,"à¤ľà¤°à¤¤":1321,"à¤Ĥà¥¤\"":1322,"à¤¬à¤µ":1323,"Ġà¤ıà¤®à¤ĵà¤ª":1324,"à¤ĸà¤²":1325,"Ġà¤°à¤¨":1326,"Ġà¤®à¤Ľ":1327,"ĠM":1328,"Ġà¤ĸà¤ļ":1329,"Ġof":1330,"Ġà¤ļà¤¹à¤ķà¤¤":1331,"Ġà¤µà¤ķ":1332,"à¤¾à¤ģà¥¤\"":1333,"à¤Ńà¤°":1334,"Ġà¤¢à¤²":1335,"à¤ªà¤¹à¤²":1336,"Ġà¤Ĩà¤ªà¤¤":1337,"te":1338,"à¤°à¤ļà¤¨":1339,"Ġà¤¬à¤µ":1340,"à¤Ĩà¤¤":1341,"à¤Ĩà¤ī":1342,"Ġà¤ĩà¤Ĺ":1343,"it":1344,"à¤Ľà¤°":1345,"Ġà¤ĳà¤Ł":1346,"Ġc":1347,"Ġà¤¶à¤¤à¤°":1348,"à¥Ĥà¤ģ,\"":1349,"Ġà¤Ńà¤Ĺà¤µ":1350,"Ġà¤Łà¤°":1351,"Ġà¥¤":1352,"Ġà¤¦à¤®":1353,"Ġà¤ĸà¤¬à¤°":1354,"ns":1355,"Ġm":1356,"Ġà¤ªà¤Ľà¤¤":1357,"à¤łà¤ķ":1358,"we":1359,"Ġà¤ĸà¤¨":1360,"Ġà¤Ľà¤²":1361,"à¤¶à¤µ":1362,"ĊĠ":1363,"Ġà¤¸à¤«à¤²à¤¤":1364,"Ġh":1365,"Ġà¤Łà¤ķà¤¸":1366,"Ġà¤ħà¤¨à¤¦":1367,"Ġà¤Ľà¤¤à¤°":1368,"Ġà¤ķà¤¤":1369,"Ġà¤Ĩà¤ľà¤®":1370,"le":1371,"Ġà¤¹à¤¨":1372,"à¤ıà¤¸":1373,"Ġà¤īà¤ªà¤ļ":1374,"à¤Łà¤ª":1375,"à¤«à¤¤":1376,"à¤¾-":1377,"Ġà¤²à¤®":1378,"itte":1379,"dd":1380,"Ġà¤ħà¤°":1381,"à¤¼à¥į":1382,"Ġà¤ľà¤²à¤¤":1383,"à¥Ĥà¥¤":1384,"à¤Ĩà¤ĵ":1385,"ittens":1386,"à¤Łà¤ķà¤¨":1387,"à¤µà¤¦":1388,"à¤«à¤¸":1389,"ll":1390,"à¤ıà¤¨":1391,"Ġyes":1392,"à¤®à¤Ł":1393,"Ġà¤Ľà¤µ":1394,"pp":1395,"Ġà¤¸à¤ĸ":1396,"à¤¡à¤¨":1397,"Ġà¤ľà¤¹à¤°":1398,"à¤ķà¤ķà¤°":1399,"oo":1400,"à¤¸à¤Ń":1401,"Ġà¤§à¤¬":1402,"Ġà¤Ĳà¤¶":1403,"in":1404,"à¤®à¤ľ":1405,"Ġà¤Ŀà¤Łà¤ķ":1406,"Ġà¤¹à¤²à¤ļà¤²":1407,"à¤¯à¤ª":1408,"Ġà¤īà¤Ĺ":1409,"Ġà¤«à¤ľ":1410,"Ġà¤īà¤¤à¤°à¤¨":1411,"Ġà¤¸à¤¹à¤ľ":1412,"à¤ķà¤¤à¤®":1413,"ou":1414,"à¥Ī?\"à¥¤":1415,"à¤ĸà¤®à¤²":1416,"udd":1417,"à¤µà¤µ":1418,"à¤¹à¤ķ":1419,"à¤Ĩà¤īà¤ļ":1420,"ck":1421,"Ġà¤®à¤£":1422,"à¥Ĥ!\"":1423,"Ġà¤ĵà¤ıà¤¸":1424,"Ġcudd":1425,"à¤²à¤«":1426,"Ġà¤®à¤ĸà¤®à¤²":1427,"Ġà¤²à¤µ":1428,"à¤ªà¤²":1429,"Ġà¤ľà¤¯à¤ķ":1430,"Ġà¤§à¤®":1431,"à¤ĩà¤¡à¤°":1432,"à¥Ĥà¤Ĥ\"à¥¤":1433,"à¥Ģ-":1434,"à¤°à¤ķà¤Ł":1435,"à¤«à¤°":1436,"à¤£à¤¯":1437,"ĠIÃ¢":1438,"Ġà¤¬à¤ļà¤¨":1439,"à¤Ĥ!\"":1440,"nÃ¢":1441,"Ġà¤¸à¤¤":1442,"à¥ĩà¤Ĥ\"à¥¤":1443,"à¤§à¤ķ":1444,"Ġà¤Łà¤¹à¤²":1445,"Ġà¤®à¤¸à¤ĸà¤°":1446,"Ġd":1447,"à¤¥à¤²":1448,"Ġe":1449,"à¤µà¤ľ":1450,"à¤īà¤ľ":1451,"Ġà¤īà¤łà¤ķà¤°":1452,"Ġà¤ªà¤²à¤ķ":1453,"et":1454,"à¤¦à¤¬":1455,"ĠL":1456,"Ġà¤ħà¤ĸ":1457,"Ġà¤īà¤ªà¤ľ":1458,"à¤µà¤¯":1459,"Ġà¤Ĳà¤¶à¤Ł":1460,"Ġà¤ħà¤ĸà¤¬":1461,"à¤®à¤§":1462,"ĠMittens":1463,"à¤¶à¤Ń":1464,"Ġà¤Ŀà¤ªà¤Ł":1465,"à¤®à¤Ľà¤²":1466,"Ġà¤īà¤ķà¤¸":1467,"à¥ĩà¤Ĥ?":1468,"à¤¥à¤ª":1469,"Ġà¤¤à¤¡":1470,"à¥ĥà¤Ĥ":1471,"nk":1472,"\",":1473,"opp":1474,"à¤°à¤¹à¤¸":1475,"à¤¸à¤¹":1476,"à¥Ģà¤Ĥ,\"":1477,"à¤ľà¤ķà¤°":1478,"Ġà¤ªà¤ķà¤µ":1479,"à¤¬à¤¤à¤ĸ":1480,"Ġà¤ķà¤¸à¤®":1481,"à¥ĩà¤Ĥ?\"":1482,"à¤ĺà¤²à¤¨":1483,"Ġp":1484,"Ġà¤²à¤¯":1485,"Ġà¤Ĩà¤Ĭ":1486,"Ġà¤¤à¤¤":1487,"ĠT":1488,"à¥ĭ\"à¥¤":1489,"Ġà¤ªà¤Ĺà¤¡":1490,"à¤ľà¤¹":1491,"Ġà¤īà¤Ľà¤²à¤¤":1492,"Ġà¤ļà¤®à¤¡":1493,"à¤ļà¤ķà¤°":1494,"à¥Ģà¤Ĥà¥¤\"":1495,"weet":1496,"ĠÅ":1497,"Ġà¤ķà¤¸":1498,"Ġà¤¬à¤ķà¤¸":1499,"à¤¼à¥ĩà¤Ĥà¥¤":1500,"à¤īà¤Ł":1501,"à¤ĩà¤Ĺà¤°":1502,"Ġà¤ĳà¤ªà¤°":1503,"ing":1504,"etÃ¢":1505,"Ġ..":1506,"Ġà¤ªà¤¦":1507,"à¤īà¤¡":1508,"Ġhopp":1509,"ĠÅĵ":1510,"Ġà¤Ľà¤¹":1511,"Ġà¤ħà¤ľà¤Ĺà¤°":1512,"à¤Ĳà¤¸":1513,"ie":1514,"à¤ķà¤Ŀ":1515,"Ġà¤Ŀà¤ķà¤Ŀ":1516,"Ġà¤Īà¤Ĺà¤²":1517,"ĠitÃ¢":1518,"Ġà¤¬à¤ľà¤¨":1519,"Ġà¤ļà¤®à¤¤":1520,"ĠLetÃ¢":1521,"Ġ...":1522,"à¤¸à¤µ":1523,"Ġà¤¬à¤§":1524,"à¤ªà¤®":1525,"à¥Īà¤Ĥ:":1526,"à¤Ĩà¤Ī":1527,"à¤¼à¥ĭà¤Ĥ,":1528,"Ġà¤µà¤¯à¤¸":1529,"à¤²à¤Ńà¤°":1530,"ed":1531,"Ġà¤ħà¤Ĺ":1532,"Ġà¤¦à¤¯à¤¨":1533,"Ġà¤Ńà¤Łà¤ķà¤¨":1534,"Ġà¤¹à¤®à¤¸":1535,"Ġà¤īà¤¤à¤°à¤¤":1536,"Ġà¤¸à¤°à¤²":1537,"ĠthatÃ¢":1538,"à¤®à¤µ":1539,"om":1540,"à¥Ĥ!":1541,"à¤ħà¤Ĺà¤°":1542,"à¥Īà¤Ĥ?\"à¥¤":1543,"à¤ľà¤°à¤¨":1544,"Ġà¤¹à¤Ĺ":1545,"onÃ¢":1546,"à¤ħà¤Ń":1547,"à¤Ĺà¤²à¤µ":1548,"Ġà¤®à¤²à¤¬":1549,"Ġà¤Ńà¤¡":1550,"Ġà¤ıà¤¬":1551,"Ġà¤ľà¤¯":1552,"Ġyou":1553,"Ġà¤¥à¤ªà¤¥à¤ª":1554,"Ġw":1555,"Ġà¤Ĩà¤ł":1556,"à¤¼à¥Ĥà¤Ĥ":1557,"à¤ĩà¤ı":1558,"ru":1559,"à¤¨à¤²":1560,"Ġà¤¸à¤¦":1561,"à¥Ĥ-":1562,"à¤ĸà¤¡":1563,"Ġ1":1564,"à¤¸à¤ĸ":1565,"Ġà¤ªà¤Łà¤°":1566,"Ġà¤ħà¤«à¤¸":1567,"an":1568,"Ġà¤¬à¤ľà¤¤":1569,"à¤¯à¤°à¤µà¤°":1570,"Ġà¤¸à¤¤à¤¹":1571,"ay":1572,"à¤Ĺà¤¦":1573,"Ġà¤ĸà¤¸à¤ĸ":1574,"Ġà¤¹à¤®à¤²":1575,"à¤¼à¥¤":1576,"à¤Ĩà¤ķ":1577,"Ġà¤ļà¤¹à¤ķ":1578,"llo":1579,"Ġà¤®à¤²":1580,"Ġà¤ªà¤ľ":1581,"à¤¼!\"":1582,"Ġthank":1583,"cky":1584,"ĠTweet":1585,"à¥ĩ:":1586,"à¤®à¤µà¤°":1587,"à¤¼à¥ĭ!\"":1588,"Ġà¤ĸà¤¦":1589,"à¤¬à¤¹à¤¨":1590,"ĠdonÃ¢":1591,"Ġà¤¬à¤¸à¤¨":1592,"Ġà¤ıà¤ķà¤®":1593,"à¤§à¤µ":1594,"Ġà¤ĸà¤¸à¤ĸà¤¸":1595,"à¤°à¤«":1596,"à¤Ĺà¤¶":1597,"Ġà¤ĺà¤Łà¤¨":1598,"à¤Ĩà¤µ":1599,"à¤¯à¤°à¤¨":1600,"Ġà¤¬à¤¦à¤²à¤¤":1601,"à¥ĩ\"à¥¤":1602,"à¤¹à¤µ":1603,"Ġà¤²à¤ªà¤Ł":1604,"à¤¶à¤®":1605,"à¤Ĩà¤Ĺ":1606,"Ġà¤¸à¤®à¤Ŀà¤¦":1607,"Ġà¤¬à¤¦à¤¤à¤°":1608,"Ġà¤Łà¤ķà¤Łà¤ķ":1609,"Ġà¤¬à¤¹à¤¤":1610,"à¤ĩà¤®":1611,"run":1612,"Ġà¤ħà¤µà¤°":1613,"runes":1614,"à¥ģ,":1615,"à¤¯à¤ķà¤°":1616,"Ġà¤ĳà¤«":1617,"ello":1618,"rr":1619,"Ġà¤Ĩà¤®à¤¤":1620,"à¤µà¤°à¤£":1621,"à¤Ĩà¤¹":1622,"Ġà¤ıà¤¡à¤®":1623,"à¤¿à¥¤":1624,"à¤Īà¤¦":1625,"à¤ĩà¤¸à¤¨":1626,"Ġà¤¡à¤°à¤ª":1627,"Ġà¤īà¤²à¤Ł":1628,"Ġprunes":1629,"à¤ĳ":1630,"à¤¸à¤®à¤¸":1631,"Ġà¤Ĺà¤¦à¤Ĺ":1632,"Ġà¤¯à¤®":1633,"Ġà¤Ĭà¤¬à¤¡":1634,"Ġà¤Ĺà¤¦à¤Ĺà¤¦":1635,"Ġà¤¤à¤¨":1636,"à¤ħà¤®":1637,"Ġà¤®à¤Ī":1638,"à¤ĩà¤¸à¤¸":1639,"Ġà¤¤à¤¹":1640,"ĠĊĠ":1641,"Ġà¤Ĩà¤Īà¤¨":1642,"Ġyu":1643,"à¤¾\"":1644,"à¤ķà¤ķ":1645,"Ġà¤ĺà¤¨":1646,"à¤¨à¤Ĺ":1647,"Ġcuddl":1648,"Ġà¤Ķ":1649,"à¥Ģ\"":1650,"à¤Ĩà¤¨":1651,"Ġà¤¤à¤°à¤²":1652,"Ġà¤ıà¤¡à¤µ":1653,"Ġà¤ħà¤µà¤¸à¤°":1654,"Ġthat":1655,"à¤¤à¤ļ":1656,"à¤Łà¤µà¤°":1657,"à¤ĩà¤¸à¤®":1658,"'à¥¤":1659,"à¥Ģ;":1660,"Ġà¤ļà¤ļ":1661,"Ġà¤ļà¤Łà¤¨":1662,"à¤īà¤¹":1663,"Ġà¤ĵà¤Ł":1664,"à¤ıà¤®à¤ıà¤®":1665,"à¥Ģ\"à¥¤":1666,"Ġà¤ļà¤ķà¤®":1667,"Ġ''":1668,"Ġà¤¸à¤¦à¤¸":1669,"Ġyucky":1670,"ĠĠĊ":1671,"Ġà¤ķà¤ªà¤ķ":1672,"à¤¨à¤¸à¤¨":1673,"!\"à¥¤":1674,"à¥Ī!\"à¥¤":1675,"Ġà¤Łà¤¹à¤²à¤¤":1676,"à¤Ĳà¤¨":1677,"mmy":1678,"ĠTweetie":1679,"ha":1680,"à¤®à¤ķà¤°":1681,"à¤¬à¤¦":1682,"à¤«à¤¬":1683,"Ġà¤ĵà¤µ":1684,"Ġthe":1685,"Ġcuddle":1686,"Ġs":1687,"à¤¦à¤ķà¤°":1688,"à¤¼à¥ģ":1689,"Ġà¤Ĩà¤ĩà¤ı":1690,"à¤ĵà¤Ĺ":1691,"my":1692,"à¤¨à¤Ĺà¤²":1693,"Ġà¤ªà¤°à¤«":1694,"à¤¸à¤²à¤¤":1695,"ĠâĤ¬à¥¤":1696,"Ġà¤Ńà¤Łà¤ķà¤¤":1697,"re":1698,"à¥ĭ-":1699,"Ġà¤ªà¤¥":1700,"à¥Ģà¤Ĥ?\"":1701,"à¤ĩà¤Łà¤°":1702,"he":1703,"Ġà¤¥à¤ķà¤¨":1704,"Ġà¤ħà¤¯":1705,"à¤¼!":1706,"à¤¡à¤ª":1707,"à¥ĭà¤Ĥ,\"":1708,"Ġii":1709,"no":1710,"à¤²à¤¸":1711,"à¤¼à¥ĭ,":1712,"Ġà¤¬à¤¨à¤ķà¤°":1713,"Ġà¤¸à¤°à¤¸à¤°":1714,"ĠâĢľ":1715,"Ġhopping":1716,"à¥ĭà¤Ĥà¥¤\"":1717,"à¤·à¤§":1718,"à¤®à¤ķà¤¤":1719,"Ġà¤ķà¤łà¤ª":1720,"Ġok":1721,"Ġà¤Ķà¤·à¤§":1722,"Ġà¤īà¤ĸ":1723,"Ġà¤°à¤¹à¤ķà¤°":1724,"à¤§à¤¤":1725,"à¤ļà¤¯":1726,"à¤¼à¤¾!":1727,"Ġà¤Ŀà¤ªà¤ķà¤¤":1728,"Ġà¤®à¤¨à¤®":1729,"Ġà¤īà¤ªà¤¸":1730,"à¤ªà¤ķà¤°":1731,"Ġà¤§à¤¡":1732,"à¤ĩà¤®à¤°":1733,"Ġà¤Ŀà¤²à¤ķ":1734,"à¤ļà¤¤à¤®":1735,"Ġà¤¤à¤¹à¤ĸ":1736,"Ġà¤¹à¤¤":1737,"Ġà¤²à¤Łà¤ķà¤¨":1738,"Ġà¤ľà¤ķà¤¡":1739,"à¤ľà¤¯":1740,"Ġà¤Łà¤ªà¤ķ":1741,"Ġà¤¡à¤Ĺ":1742,"à¤Ĩà¤¶":1743,"ĊĊ":1744,"à¤Ĥ!":1745,"à¤²à¤Ŀ":1746,"à¥ģà¤ĥ":1747,"Ġà¤ľà¤ľ":1748,"ĠyouÃ¢":1749,"Ġà¤¸à¤ķà¤²":1750,"à¤ĩà¤ľ":1751,"Ġà¤īà¤Ľà¤²à¤¨":1752,"à¤Łà¤®":1753,"à¤Łà¤ķà¤°":1754,"Ġà¤Ĩà¤īà¤Ł":1755,"à¤Ńà¤ķ":1756,"Ġhopped":1757,"Ġà¤¡à¤Ĺà¤®à¤Ĺ":1758,"Ġà¤µà¤¨":1759,"à¥ĭà¤Ĥ!\"":1760,"ĠH":1761,"Ġà¤īà¤Ĺà¤¤":1762,"Ġà¤¨à¤ĸà¤²":1763,"à¤ªà¤¦":1764,"à¤ªà¤¶":1765,"Ġà¤Ĩà¤ĩà¤Ł":1766,"à¤·à¤¤":1767,"à¤ĵà¤²":1768,"Ġà¤Ĩà¤ĩà¤Łà¤®":1769,"loo":1770,"à¥ĭ\"":1771,"à¤¶à¤¤":1772,"Ġà¤Ĩà¤ĩà¤¸":1773,"à¤¾à¤ģ:":1774,"Ġà¤§à¤®à¤ķ":1775,"à¤Ĩà¤īà¤Ł":1776,"eÃ¢":1777,"à¤°à¤ļ":1778,"à¤¼à¥Ģà¤Ĥà¥¤":1779,"Ġà¤°à¤ľ":1780,"Ġà¤ıà¤°":1781,"Ġà¤īà¤²à¤Łà¤¨":1782,"Ġ10":1783,"look":1784,"ow":1785,"ĠW":1786,"Ġà¤ħà¤¶":1787,"à¥ĭà¤Ĥ!":1788,"à¤Īà¤¸":1789,"à¤Īà¤µ":1790,"à¤¼à¥Ģ!":1791,"à¥Ĥà¤ģ?":1792,"be":1793,"Ġà¤®à¤Ł":1794,"à¤¥à¤¡":1795,"à¤ħà¤ľà¤¨à¤¬":1796,"Ġà¤¸à¤¹à¤®":1797,"à¥Īà¤Ĥ!\"à¥¤":1798,"à¤¯à¤°à¤ª":1799,"à¥ĩ\"":1800,"à¥ĭà¤Ĥ?\"":1801,"à¤¬à¤ľ":1802,"Ġà¤Ĩà¤¦à¤¤":1803,"à¤ĵà¤Łà¤°":1804,"à¤°à¤Ĺ":1805,"à¤¼à¤¾!\"":1806,"à¤ĩà¤®à¤¨":1807,"à¤®à¤Ĺà¤°à¤®à¤ļ":1808,"à¤¯à¤¥":1809,"à¤Ĺà¤łà¤¨":1810,"à¥Ģà¤Ĥ?":1811,"Ġà¤ĵà¤µà¤°":1812,"à¤ħà¤«à¤¸":1813,"à¤°à¤¤à¤®":1814,"à¥Ĥà¤Ĥ?\"à¥¤":1815,"à¤ŀà¤¤":1816,"Ġà¤²à¤Łà¤ķà¤¤":1817,"ommy":1818,"ĠZ":1819,"Ġà¤ªà¤Łà¤ķ":1820,"à¤ıà¤¬":1821,"à¤īà¤¤":1822,"à¤īà¤«":1823,"Ġà¤Ĭà¤¤à¤ķ":1824,"à¤¾!\"à¥¤":1825,"Ġ,":1826,"ĠS":1827,"à¥ĩ-":1828,"à¤¿!\"":1829,"à¤ķà¤¦":1830,"Ġà¤²à¤¤":1831,"à¤ĩà¤ķà¤²":1832,"à¥ĭ?\"à¥¤":1833,"oh":1834,"Ġ2":1835,"ĠB":1836,"à¤²à¤¹":1837,"à¤¶à¤¹à¤°":1838,"à¥īà¥¤":1839,"à¤Ńà¤²":1840,"à¤īà¤¬":1841,"à¤¨à¤¸":1842,"à¤¼à¥ĭà¥¤":1843,"Ġà¤Ńà¤¤":1844,"à¤¦à¤°à¤ķ":1845,"à¤ĩà¤¤à¤¨":1846,"à¤ķà¤Łà¤¤à¤®":1847,"à¤ĩà¤µà¤µ":1848,"à¤ıà¤¡à¤®":1849,"à¤°à¤ķà¤°":1850,"à¤¥à¤ķ":1851,"à¤Ńà¤¨":1852,"à¤ħà¤ľ":1853,"à¤ħà¤§":1854,"à¥ĩ?\"à¥¤":1855,"ack":1856,"à¤Ĺà¤ı":1857,"Ġà¤«à¤¸à¤²":1858,"Ġà¤ĵà¤¹":1859,"à¤®à¤ķà¤¡":1860,"Ġà¤Ŀà¤°à¤¨":1861,"Ġà¤²à¤¹à¤°à¤¤":1862,"Ġà¤ħà¤µà¤ľ":1863,"ig":1864,"qu":1865,"Ġ?":1866,"à¤ķà¤Ľ":1867,"à¤Ĥ,\"":1868,"Ġà¤ħà¤µà¤²":1869,"à¤¼à¥ĩà¤Ĥà¥¤\"":1870,"à¤Ĺà¤¦à¤°":1871,"Ġà¤ļà¤ĸà¤¨":1872,"à¤ļà¤ķà¤¶":1873,"ob":1874,"ĠO":1875,"Ġà¤¸à¤¦à¤®":1876,"Ġà¤īà¤Ĺà¤²":1877,"à¥Ĥ\"":1878,"Ġà¤ļà¤¯à¤¨":1879,"à¤¾à¤ģ?":1880,"à¤Ĩà¤²":1881,"Ġà¤ħà¤¨à¤Ń":1882,"Ġà¤ľà¤®à¤¨":1883,"à¤Ľà¤²à¤Ĺ":1884,"ĠÃ¢I":1885,"ag":1886,"à¤ķà¤ĺà¤°":1887,"Ġà¤¬à¤®":1888,"Ġà¤ħà¤ªà¤°":1889,"à¤·à¤®à¤¤":1890,"à¥Ī!\",":1891,"Ġà¤¸à¤°à¤Ĺà¤°":1892,"Ġà¤ªà¤¹à¤¨à¤ķà¤°":1893,"Ġcuddly":1894,"à¤ıà¤®à¤ıà¤®à¤ıà¤®":1895,"Ġcuddled":1896,"ĠiiÃ¢":1897,"à¤¨à¤¬":1898,"à¤¸à¤ļ":1899,"à¥Ī\"":1900,"à¤¡à¤«":1901,"Ġà¤Łà¤ĸà¤¨":1902,"à¤ĩà¤°":1903,"Ġà¤ıà¤¶à¤²":1904,"à¤Łà¤°à¤«":1905,"am":1906,"ve":1907,"à¤ķà¤Ĩà¤īà¤Ł":1908,"à¤®à¤Ľ":1909,"ĠĊĊ":1910,"à¤īà¤ļ":1911,"Ġà¤¸à¤¹à¤ª":1912,"Ġà¤Ĩà¤¸à¤®":1913,"Ġà¤ªà¤²à¤Ł":1914,"Ġà¤ħà¤µà¤¯à¤µ":1915,"à¤ľà¤¸":1916,"à¥Ģà¤Ĥ:":1917,"à¤¼à¤¾à¤Ĥ":1918,"à¤¼à¥Ģ!\"":1919,"à¥Ĥà¤Ĥ!\"à¥¤":1920,"urr":1921,"à¥ĩ;":1922,"à¤²à¤¶":1923,"à¥ģà¥¤":1924,"à¤¯à¤Ł":1925,"à¤¡à¤¹":1926,"à¤¥à¤¬":1927,"!\",":1928,"à¤¾à¤Ĥ!\"":1929,"à¤Ĩà¤ĩà¤¸à¤ķ":1930,"à¤īà¤¦":1931,"Ġà¤¸à¤¹à¤¯":1932,"à¤¯à¤°à¤¡":1933,"Ġà¤ķà¤¡à¤²":1934,"ĠÃ¢look":1935,"Ġà¤¬à¤ķà¤µ":1936,"Ġà¤¸à¤¨à¤¸":1937,"Ġ...\"":1938,"Ġokay":1939,"as":1940,"à¤¸à¤Łà¤°":1941,"Ġà¤®à¤Łà¤°":1942,"Ġà¤īà¤¥à¤²":1943,"Ġà¤Ľà¤ªà¤¨":1944,"à¤Ńà¤¯":1945,"à¤²à¤¦à¤¸":1946,"ĠiÃ¢":1947,"ĠÅĵno":1948,"ww":1949,"Ġà¤Ĺà¤§":1950,"Ġà¤ļà¤°à¤µ":1951,"à¤¬à¤°à¤ľ":1952,"à¤ļà¤Ł":1953,"Ġà¤«à¤¹à¤°":1954,"Ġà¤ļà¤¹à¤ķà¤¨":1955,"Ġhello":1956,"Ġcuddles":1957,"ai":1958,"ly":1959,"zz":1960,"ĠC":1961,"Ġà¤īà¤Ĺà¤¨":1962,"à¤¼à¥ĩà¤Ĥ,":1963,"à¤¬à¤ķà¤°":1964,"à¤ľà¤®":1965,"Ġà¤ķà¤¹à¤ķà¤°":1966,"à¤·à¤ľ":1967,"Ġà¤§à¤°":1968,"ĠâĤ¬!":1969,"à¤¸à¤®à¤¯":1970,"à¤¼à¥ĭà¥¤\"":1971,"oom":1972,"à¤ĳà¤ķ":1973,"!'":1974,"of":1975,"yes":1976,"Ġqu":1977,"à¤°à¤°":1978,"à¤ķà¤Ī":1979,"à¤¯à¤²à¤°":1980,"Ġà¤¬à¤ķà¤²":1981,"Ġà¤ªà¤Ľ":1982,"Ġà¤ªà¤«":1983,"Ġà¤ħà¤¦à¤°à¤ķ":1984,"à¤¼à¥Ģà¤Ĥ":1985,"à¤¡à¤®":1986,"Ġà¤°à¤¯":1987,"Ġà¤Ĩà¤īà¤ļ":1988,"Ġà¤¤à¤¥":1989,"à¤«à¤ķ":1990,"à¤¸à¤®à¤Ŀ":1991,"ĠÃ¢C":1992,"let":1993,"hat":1994,"ar":1995,"ĠP":1996,"à¥Ģ'":1997,"à¤¸à¤¡":1998,"Ġà¤¬à¤Łà¤°à¤«":1999,"à¤¦à¤¹":2000,"à¤Łà¤«":2001,"Ġà¤°à¤®":2002,"à¤ļà¤¬":2003,"à¤łà¤²":2004,"à¤¦à¤°à¤µ":2005,"à¤ĩà¤«":2006,"Ġà¤Ĭà¤¦à¤¬":2007,"Ġà¤¸à¤¹à¤²":2008,"à¤ľà¤¬à¤ķ":2009,"à¤ķà¤²à¤ķà¤°":2010,"Ġà¤ħà¤¸à¤«à¤²":2011,"Ġey":2012,"ure":2013,"ĠJ":2014,"ĠÂ":2015,"à¤¨à¤ı":2016,"à¤¨à¤Ī":2017,"à¤®à¤Ī":2018,"Ġà¤¨à¤®":2019,"Ġà¤ħà¤«":2020,"à¤Ľà¤¡":2021,"Ġà¤ĩà¤ľ":2022,"Ġà¤¡à¤¸":2023,"?\"à¥¤":2024,"à¤ħà¤¸":2025,"Ġà¤¶à¤°à¤®":2026,"à¥Ĥà¤ģ\"à¥¤":2027,"Ġme":2028,"well":2029,"room":2030,"Ġà¤®à¤°à¤¨":2031,"Ġà¤ļà¤ª":2032,"à¤Łà¤Ł":2033,"à¤µà¤Ń":2034,"à¤ļà¤ª":2035,"à¥Ģà¤Ĥ\"à¥¤":2036,"à¤¾?\"à¥¤":2037,"Ġomm":2038,"Ġis":2039,"Ġpurr":2040,"and":2041,"Ġà¤Łà¤ªà¤ķà¤¤":2042,"ĠHello":2043,"Ġà¤ĵà¤µà¤°à¤¹":2044,"ee":2045,"on":2046,"à¤¸à¤¶":2047,"à¥ģ!\"":2048,"Ġà¤µà¤ľà¤¹":2049,"Ġà¤ħà¤µà¤ķ":2050,"à¤¡à¤¸":2051,"Ġà¤ļà¤°à¤£":2052,"à¤ĸà¤ķ":2053,"à¤µà¤µà¤¤":2054,"à¤§à¤²":2055,"à¥Į,":2056,"à¤Ŀà¤ķà¤¤":2057,"à¤Ĩà¤ªà¤¸":2058,"à¤Ĩà¤²à¤¸":2059,"Ġà¤¬à¤°à¤¸":2060,"ĠÃ¢S":2061,"ĠÃ¢w":2062,"ink":2063,"omom":2064,"You":2065,"ce":2066,"ch":2067,"Ġ5":2068,"ĠYou":2069,"à¤¨à¤ļ":2070,"à¤ķà¤®à¤°":2071,"Ġà¤īà¤Ńà¤°":2072,"à¤¦à¤¡":2073,"à¥Ĥà¥¤\"":2074,"Ġà¤Ĩà¤µà¤°":2075,"à¤ħà¤²":2076,"Ġà¤ħà¤¸à¤®à¤°":2077,"Ġà¤ĳà¤¬":2078,"ood":2079,"Ġquack":2080,"Ġà¤°à¤®à¤£":2081,"Mittens":2082,"Tweet":2083,"id":2084,"omm":2085,"ut":2086,"Ġb":2087,"Ġv":2088,"Ġà¤ķà¤µà¤ļ":2089,"à¤¨à¤ļà¤°":2090,"Ġà¤¹à¤Łà¤¨":2091,"Ġà¤¬à¤¬à¤²":2092,"Ġà¤¨à¤ª":2093,"Ġà¤¡à¤ķà¤²":2094,"Ġà¤¬à¤¨à¤¤":2095,"Ġà¤¬à¤ļà¤¤":2096,"à¤¤à¤°à¤¨":2097,"er":2098,"Ġ4":2099,"ĠD":2100,"Ġà¤ķà¤¯":2101,"à¤¤à¤¹":2102,"à¥Ī\",":2103,"Ġà¤ªà¤ļ":2104,"à¥Ĥ,\"":2105,"à¥ĭà¤Ĥ?":2106,"à¤ľà¤¯à¤ķ":2107,"à¤ħà¤¹":2108,"Ġà¤łà¤¹à¤°":2109,"Ġà¤°à¤ĸà¤µ":2110,"à¥Ī?\",":2111,"Ġà¤ļà¤®à¤Ĺ":2112,"ĠÃ¢H":2113,"ĠTweety":2114,"Ġà¤Ĩà¤īà¤Łà¤«":2115,"ĠYouÃ¢":2116,"'m":2117,"ey":2118,"Ġà¤ķà¤·":2119,"à¤¨à¤Ŀ":2120,"à¤¤à¤¸":2121,"à¤¯à¤ľà¤¨":2122,"à¤®à¤¶":2123,"à¤¼à¥ĩà¤Ĥ!\"":2124,"à¤¼à¥ĭ,\"":2125,"Ġà¤ļà¤ķà¤°":2126,"Ġà¤ļà¤ĸà¤¤":2127,"à¤ĸà¤ļ":2128,"Ġà¤¸à¤°à¤ªà¤Ł":2129,"Ġicky":2130,"Ġwag":2131,"good":2132,"hello":2133,"nt":2134,"sy":2135,"Ġr":2136,"à¤¨à¤ĺà¤°":2137,"à¤¿à¥¤\"":2138,"à¤²à¤ľ":2139,"à¤®à¤¤à¤²à¤¬":2140,"Ġà¤ļà¤°à¤®":2141,"à¤Īà¤®":2142,"à¤¹à¤°à¤£":2143,"Ġà¤ıà¤¸":2144,"Ġofof":2145,"ĠWeÃ¢":2146,"hh":2147,"la":2148,"ĠA":2149,"Ġk":2150,"Ġand":2151,"à¥ħ":2152,"à¤¹à¤²":2153,"à¤ķà¤®":2154,"à¤Ĥ?\"":2155,"à¤¯à¤¯":2156,"à¥Ī;":2157,"Ġà¤¬à¤¦à¤®":2158,"Ġà¤ľà¤¤":2159,"à¥Īà¤Ĥ\"":2160,"Ġà¤Ľà¤ªà¤¤":2161,"à¤¾à¤Ĥà¥¤":2162,"Ġà¤ħà¤¨à¤ľ":2163,"Ġà¤¸à¤¬à¤µ":2164,"Ġà¤ķà¤łà¤«":2165,"ĠÃ¢W":2166,"ppy":2167,"ommmy":2168,"ea":2169,"ir":2170,"Ġmm":2171,"à¥ĭ'":2172,"à¤²à¤Ĺà¤¤":2173,"Ġà¤¹à¤ķà¤¦":2174,"Ġà¤¬à¤Ľà¤¡":2175,"à¤®à¤²à¤¤":2176,"à¤®à¤ľà¤¬":2177,"Ġà¤ªà¤¦à¤¯":2178,"à¤ªà¤¤à¤µ":2179,"Ġà¤ľà¤¸":2180,"Ġà¤ļà¤¡":2181,"à¤¬à¤¢":2182,"Ġà¤ªà¤°à¤¤":2183,"Ġà¤ªà¤°à¤®":2184,"à¤¾à¤ģ\"":2185,"Ġà¤¶à¤¨":2186,"à¥Ĥà¤Ĥ\"":2187,"à¤£à¤¨":2188,"Ġà¤ĸà¤°à¤ªà¤¤à¤µ":2189,"Ġà¤Ĭà¤¬à¤¨":2190,"Ġà¤ľà¤®à¤ķà¤°":2191,"à¥ĭ!\"à¥¤":2192,"à¤¼à¥ĭ!":2193,"Ġmomom":2194,"aybe":2195,"rrr":2196,"hatÃ¢":2197,"à¤Ńà¤¯à¤Ń":2198,"ĠÂ©":2199,"OW":2200,"bs":2201,"op":2202,"us":2203,"Ġ!":2204,"Ġa":2205,"ĠÃ":2206,"ĠĠ":2207,"Ġwe":2208,"à¤¤à¤°à¤¤":2209,"à¤¼à¤¾à¥¤\"":2210,"à¤¶à¤®à¤¨":2211,"à¤ļà¤²à¤¤":2212,"Ġà¤Ĩà¤µà¤°à¤£":2213,"à¤Īà¤Ĺà¤²":2214,"à¤¼à¤¾?\"":2215,"Ġà¤®à¤¹à¤ķ":2216,"à¤¾!\",":2217,"letÃ¢":2218,"Ġthanks":2219,"hank":2220,"ĠOink":2221,"Ġpurrs":2222,"Ġquacked":2223,"Ġvroom":2224,"ok":2225,"à¤¾'":2226,"à¤¾\",":2227,"à¥Ģà¤ģ":2228,"à¤¨à¤«":2229,"à¤Ĥ\"à¥¤":2230,"Ġà¤¹à¤ľ":2231,"à¤®à¤«":2232,"Ġà¤µà¤°à¤¨":2233,"Ġà¤ľà¤Ł":2234,"à¤ĸà¤ľ":2235,"Ġà¤°à¤«":2236,"Ġà¤¤à¤ĸ":2237,"Ġà¤ļà¤²à¤ķà¤°":2238,"à¤Ŀà¤¨":2239,"à¤Ĩà¤ĩà¤ı":2240,"à¤ħà¤Ĺ":2241,"Ġà¤¬à¤ļà¤ªà¤¨":2242,"Ġà¤ıà¤²à¤°":2243,"Ġà¤īà¤ªà¤¦":2244,"Ġà¤Īà¤µ":2245,"Ġà¤¶à¤¹à¤°à¤µ":2246,"à¥Ĥà¤ģ!\"à¥¤":2247,"à¥Ī?'":2248,"à¥Ģ?\"à¥¤":2249,"ĠÃ¢M":2250,"à¤®à¤¹à¤²":2251,"à¤īà¤²à¤Ŀà¤¨":2252,"oomy":2253,"omommy":2254,"Ġwob":2255,"à¤¬à¤¦à¤¸":2256,"ĠWe":2257,"ohn":2258,"igg":2259,"Tweetie":2260,"is":2261,"mommy":2262,"à¥ĩ'":2263,"à¤°à¤Ĺà¤¤":2264,"à¤ķà¤ł":2265,"à¤ķà¤ªà¤¡":2266,"à¤®à¤¬à¤°":2267,"à¤¦à¤µ":2268,"à¤¦à¤¬à¤°":2269,"à¤ıà¤°":2270,"à¤Łà¤µ":2271,"Ġà¤¤à¤¹à¤¤":2272,"Ġà¤Łà¤«":2273,"à¤Ńà¤¡":2274,"Ġà¤Ĩà¤ªà¤¦":2275,"à¤ħà¤ĸà¤°":2276,"à¤¾!'":2277,"Ġà¤ħà¤¨à¤Ł":2278,"à¤°à¤ķà¤¦à¤¬à¤°":2279,"Ġà¤¸à¤¬à¤°":2280,"Ġà¤ıà¤²à¤¨":2281,"à¤ªà¤°à¤®":2282,"Ġà¤Ĩà¤¨à¤¨":2283,"Ġà¤ľà¤Ĺà¤®à¤Ĺ":2284,"à¤īà¤¨à¤®":2285,"à¤¯à¤°à¤«":2286,"à¤¶à¤¨à¤°":2287,"Ġà¤Ŀà¤ªà¤ķà¤¨":2288,"Ġà¤¹à¤²à¤µ":2289,"Ġoh":2290,"led":2291,"leas":2292,"ĠwhatÃ¢":2293,"Ġ20":2294,"ĠÃ¢Can":2295,"ĠÃĤ":2296,"Ġwobb":2297,"RR":2298,"at":2299,"ging":2300,"im":2301,"uz":2302,"yÃ¢":2303,"Ġà¤ķà¤ķà¤¡":2304,"à¤¿,\"":2305,"Ġà¤®à¤¦à¤°":2306,"Ġà¤īà¤¬à¤²":2307,"à¤¡à¤²à¤¬":2308,"à¤Ĺà¤¹":2309,"à¤Ĺà¤ª":2310,"Ġà¤ĩà¤¨à¤®":2311,"à¥Īà¥¤'":2312,"à¤Ĩà¤Ł":2313,"à¤īà¤ª":2314,"Ġà¤°à¤ĸà¤ķà¤°":2315,"à¤¤à¤°à¤¬":2316,"à¥Īà¤Ĥ?\",":2317,"à¤Łà¤ķà¤Ł":2318,"à¥ĭ!\",":2319,"Ġà¤ķà¤²à¤°":2320,"à¤ĩà¤¨à¤°":2321,"Ġà¤Īà¤¶":2322,"ĠÃ¢well":2323,"à¤ĳà¤«":2324,"hew":2325,"Ġkno":2326,"AW":2327,"ad":2328,"can":2329,"do":2330,"ill":2331,"um":2332,"zag":2333,"à¤¿!":2334,"à¤¹à¤ª":2335,"Ġà¤¸à¤Ł":2336,"Ġà¤ªà¤ªà¤¡":2337,"à¤¼,\"":2338,"à¥Ĥ?\"":2339,"à¤Łà¤²à¤°":2340,"à¤¬à¤§":2341,"à¤ľà¤µ":2342,"Ġà¤°à¤¦":2343,"à¥Ģà¤Ĥ'":2344,"Ġà¤ĩà¤Ł":2345,"à¤Īà¤°":2346,"Ġà¤ĺà¤¸":2347,"à¤¼à¥Ģ?\"":2348,"à¤ĩà¤ªà¤°":2349,"à¤ħà¤¦à¤°à¤ķ":2350,"à¤Ĺà¤²à¤¤":2351,"à¤ªà¤ķà¤¡":2352,"à¤°à¤®à¤£":2353,"Ġà¤®à¤¤à¤Ń":2354,"à¥Ģ!\"à¥¤":2355,"Ġà¤ĳà¤¸":2356,"ĠÃ¢T":2357,"ĠÃ¢my":2358,"ĠÃ¢yes":2359,"ĠÃ¢let":2360,"à¤ĩà¤Łà¤¸":2361,"à¤¡à¤ķà¤Łà¤°":2362,"Ġà¤¸à¤¨à¤¸à¤¨":2363,"Ġofyes":2364,"Ġmittens":2365,"Ġem":2366,"Ġemm":2367,"Ġ15":2368,"Ġ100":2369,"ber":2370,"aisy":2371,"Ġommmommy":2372,"ĠÃ¢wow":2373,"Ġwagging":2374,"nthank":2375,"',":2376,"ac":2377,"ax":2378,"ave":2379,"go":2380,"ippy":2381,"li":2382,"ummy":2383,"Ġ8":2384,"Ġve":2385,"à¤¹à¤ľà¤¨à¤ķ":2386,"à¤¾à¥¤'":2387,"à¥ĩà¤Ĥ\"":2388,"Ġà¤Ĺà¤¸":2389,"à¤Ĺà¤²à¤¨":2390,"à¤ĸà¤°à¤¨":2391,"Ġà¤Ĩà¤ĩà¤ķ":2392,"à¥Ģà¤Ĥ\"":2393,"Ġà¤«à¤¨":2394,"Ġà¤«à¤Łà¤¨":2395,"à¤·à¤¯":2396,"à¤Ńà¤¤":2397,"à¤łà¤Ń":2398,"Ġà¤ĵà¤ªà¤¨":2399,"à¤ħà¤ķ":2400,"à¤ħà¤µ":2401,"Ġà¤ħà¤¨à¤¸":2402,"Ġà¤¤à¤°à¤¸":2403,"Ġà¤Ńà¤°à¤ª":2404,"à¤ĺà¤¡":2405,"à¤ķà¤²à¤°":2406,"à¤¯à¤°à¤Ł":2407,"à¤¼à¤¾,\"":2408,"à¤Ĭà¤ªà¤°":2409,"Ġà¤ĳà¤¨à¤²":2410,"à¥ĩà¤Ĥ!\"à¥¤":2411,"à¤¾?!\"":2412,"ĠÃ¢B":2413,"ĠÃ¢N":2414,"à¤¼à¥ĩà¤Ĥ!":2415,"Ġon":2416,"Ġà¤ħà¤ªà¤µ":2417,"Ġca":2418,"ĠÅĵoh":2419,"igzag":2420,"ĠÃ¢IÃ¢":2421,"ama":2422,"ank":2423,"dgood":2424,"lhello":2425,"na":2426,"ny":2427,"or":2428,"the":2429,"Ġ9":2430,"Ġlook":2431,"à¤¾'à¥¤":2432,"à¤°à¤¬à¤°":2433,"à¤¿à¥ĩ":2434,"Ġà¤®à¤¨à¤ķ":2435,"Ġà¤®à¤Łà¤ķ":2436,"Ġà¤īà¤ĸà¤¡":2437,"à¤®à¤°à¤¸":2438,"Ġà¤¨à¤¸":2439,"Ġà¤¨à¤µ":2440,"à¤ªà¤¤à¤²":2441,"à¤ªà¤Łà¤¨":2442,"à¤¼à¥¤\"":2443,"à¤¼à¥Ģ,\"":2444,"à¤¼à¥ĩà¤Ĥ,\"":2445,"Ġà¤Ĺà¤łà¤¨":2446,"à¤Ĺà¤Ĺ":2447,"à¤Ĺà¤Ł":2448,"à¤Ĺà¤¹à¤¨":2449,"à¤¬à¤¦à¤²":2450,"à¤ľà¤Ĺà¤¹":2451,"Ġà¤Ĩà¤ļ":2452,"à¥Īà¤Ĥ\",":2453,"à¤Ľà¤¹":2454,"Ġà¤ľà¤¬à¤¡":2455,"à¤īà¤®":2456,"à¤ĸà¤¤à¤°":2457,"à¤ĸà¤¤à¤°à¤¨":2458,"à¤£à¤µà¤¤":2459,"à¤ĵà¤µà¤¨":2460,"à¤Ĺà¤¨à¤«":2461,"Ġà¤ħà¤¦à¤²":2462,"Ġà¤īà¤ªà¤µ":2463,"à¤¡à¤°à¤Ĺ":2464,"à¥Īà¤Ĥ!'":2465,"ĠÃ¢P":2466,"ĠÃ¢y":2467,"Ġou":2468,"Ġodgood":2469,"à¤Ĩà¤°à¤Ĩà¤°":2470,"ĠMomommy":2471,"Ġmaybe":2472,"wed":2473,"Ġsure":2474,"à¤¡à¤®à¤¦à¤°":2475,"ĠDonÃ¢":2476,"uzie":2477,"Ġemmommmy":2478,"Eww":2479,"aa":2480,"el":2481,"ip":2482,"john":2483,"lu":2484,"à¤¿\"":2485,"à¤¸à¤ľ":2486,"à¤²à¤ķà¤¨":2487,"à¥ģ!":2488,"à¤¯à¤§":2489,"à¤¦à¤¸":2490,"à¤ªà¤¬":2491,"à¤ıà¤µ":2492,"à¤Łà¤¹à¤¨":2493,"à¤µà¤«":2494,"Ġà¤°à¤ļ":2495,"à¤ļà¤®à¤ķ":2496,"Ġà¤¯à¤¥":2497,"Ġ\"à¥¤":2498,"à¤¾à¤ģ\"à¥¤":2499,"Ġà¤ĺà¤Łà¤¤":2500,"Ġà¤ªà¤ķà¤¨":2501,"à¤Ĩà¤§":2502,"à¤ĩà¤Łà¤¬":2503,"à¤ķà¤°à¤¨":2504,"à¤ķà¤°à¤¦":2505,"Ġà¤ĵà¤Ĺ":2506,"à¤ħà¤¦":2507,"à¤ħà¤Ł":2508,"Ġà¤¹à¤°à¤ķà¤¤":2509,"Ġà¤ħà¤¨à¤¹":2510,"Ġà¤ıà¤¶":2511,"à¤ĵà¤ķ":2512,"à¤ĵà¤ĵ":2513,"à¤¯à¤ķà¤²":2514,"à¤ĺà¤²à¤¤":2515,"à¥Īà¤Ĥ!\",":2516,"à¥Ĥà¤Ĥà¥¤'":2517,"à¥Ī!'":2518,"à¤ķà¤¤à¤µà¤°":2519,"à¤²à¤ķà¤®":2520,"Ġin":2521,"Ġit":2522,"Ġà¤®à¤°à¤¹à¤®":2523,"Ġthanthank":2524,"à¤ĳà¤°":2525,"zzy":2526,"Ġmewed":2527,"ĠisnÃ¢":2528,"iggled":2529,"Ġknobs":2530,"Aww":2531,"Qu":2532,"ca":2533,"ons":2534,"ray":2535,"top":2536,"xc":2537,"Ġf":2538,"ĠletÃ¢":2539,"ĭà¤¤":2540,"Ġà¤ĭà¤¤":2541,"Ġà¤ķà¤Łà¤°":2542,"Ġà¤ķà¤¸à¤¨":2543,"à¤¹à¤ªà¤°":2544,"à¤ķà¤¯":2545,"à¤¤à¤ĺ":2546,"à¤²à¤ª":2547,"à¤²à¤°à¤ķ":2548,"à¤¯à¤Ĺ":2549,"à¤¯à¤²à¤¨":2550,"Ġà¤īà¤ķ":2551,"à¤®à¤¶à¤°":2552,"à¤ªà¤¦à¤ķ":2553,"Ġà¤ıà¤ķà¤²":2554,"à¤¼?\"":2555,"à¤¼à¥Ģà¤Ĥ,":2556,"à¤¼à¥Ģà¥¤\"":2557,"à¤¡à¤²à¤°":2558,"à¥Ĥ\"à¥¤":2559,"à¤Ĺà¤ķà¤°":2560,"à¤Ĺà¤£":2561,"Ġà¤ļà¤ķà¤¨":2562,"à¤µà¤ľà¤¨":2563,"à¤ľà¤¡":2564,"à¤Ľà¤ª":2565,"à¤Ľà¤ķà¤°":2566,"Ġà¤Ńà¤µà¤¨":2567,"Ġà¤Łà¤¸":2568,"Ġà¤ªà¤°à¤¹":2569,"à¤Ĩà¤¡":2570,"à¤¼à¥ĩ!":2571,"à¤īà¤Ľ":2572,"à¤īà¤Ĺà¤°":2573,"à¤ĩà¤¤":2574,"Ġà¤ĵà¤¸":2575,"à¤ħà¤²à¤®":2576,"à¤µà¤°à¤¬":2577,"Ġà¤¶à¤°à¤¦":2578,"Ġà¤¶à¤°à¤£":2579,"Ġà¤¢à¤¹":2580,"à¤®à¤¸à¤ĸà¤°":2581,"Ġà¤¸à¤°à¤¸":2582,"à¥Ĥà¤Ĥ?\",":2583,"à¤Ĭà¤¹":2584,"à¤²à¤Ĺà¤Ńà¤Ĺ":2585,"Ġ30":2586,"Ġà¤¬à¤ķà¤¬à¤ķ":2587,"Ġow":2588,"Ġyea":2589,"Ġà¤¸à¤¨à¤¶":2590,"Ġofdo":2591,"ddy":2592,"ĠÅĵN":2593,"ome":2594,"Ġcuddling":2595,"hey":2596,"ĠZo":2597,"ĠZoomy":2598,"ĠZac":2599,"à¤¶à¤¹à¤°à¤µ":2600,"ĠOW":2601,"Ġà¤ħà¤«à¤µ":2602,"ĠÃ¢Sure":2603,"ĠÃ¢Wow":2604,"ĠweÃ¢":2605,"ĠÃ¢That":2606,"Ġember":2607,"ĠcanÃ¢":2608,"IÃ¢":2609,"OO":2610,"Vroom":2611,"ait":2612,"ia":2613,"immy":2614,"ss":2615,"ye":2616,"ĠE":2617,"Ġg":2618,"ĠVroom":2619,"à¤¨à¤°à¤®":2620,"à¤¿?\"":2621,"à¤¸à¤¬à¤°":2622,"à¥ĭ\",":2623,"à¤¯à¤Łà¤ķ":2624,"à¥Ī-":2625,"Ġà¤¬à¤«":2626,"Ġà¤¬à¤°à¤¤":2627,"Ġà¤īà¤¬à¤°":2628,"Ġà¤¨à¤¤":2629,"à¤¼à¤¿à¤Ĥ":2630,"à¥ĩà¤Ĥ\",":2631,"à¤ıà¤²à¤¨":2632,"Ġà¤ļà¤ķà¤²":2633,"à¤Łà¤ħà¤ª":2634,"Ġà¤°à¤¬":2635,"Ġà¤Ĩà¤¸à¤¨":2636,"à¤Īà¤ĺà¤°":2637,"Ġà¤Łà¤¨":2638,"Ġà¤Łà¤¨à¤²":2639,"à¥Īà¤Ĥà¥¤'":2640,"Ġà¤ĺà¤Ł":2641,"à¤¾à¤Ĥ!":2642,"à¤¾à¤Ĥà¥¤\"":2643,"?\",":2644,"Ġà¤¤à¤ķà¤¨":2645,"à¤¨à¤¤à¤®":2646,"Ġà¤Ĺà¤°à¤ľ":2647,"Ġà¤Ńà¤°à¤ķà¤°":2648,"Ġà¤ĸà¤°à¤¬":2649,"Ġà¤¸à¤¹à¤¨":2650,"à¤Ĺà¤¨à¤«à¤²":2651,"Ġà¤Ĩà¤Īà¤¶":2652,"Ġà¤²à¤¹à¤°à¤¨":2653,"à¤¼à¥ĭ\"à¥¤":2654,"Ġà¤ĳà¤¡":2655,"à¥Ī?!\"":2656,"à¥ĩ!\"à¥¤":2657,"à¤ıà¤®à¤ĵà¤ª":2658,"Ġà¤īà¤¤à¤°à¤ķà¤°":2659,"à¤Ńà¤Ĺà¤µ":2660,"ĠÃ¢O":2661,"ĠÃ¢d":2662,"à¤°à¤¬à¤¦à¤²":2663,"Ġot":2664,"Ġolhello":2665,"Ġif":2666,"Ġyay":2667,"Ġofi":2668,"Ġcan":2669,"à¤Ĩà¤Īà¤ı":2670,"omÃ¢":2671,"now":2672,"ĠHeÃ¢":2673,"ĠZigzag":2674,"ĠOw":2675,"aia":2676,"à¤¸à¤®à¤Ŀà¤ķà¤°":2677,"ĠÃ¢Hi":2678,"ĠÃ¢Hello":2679,"ĠÃ¢WOW":2680,"use":2681,"ĠÃ¢Me":2682,"Ġwobbly":2683,"ĠÃ¢Now":2684,"''":2685,"11":2686,"Brrr":2687,"MM":2688,"Shh":2689,"Zoomy":2690,"ak":2691,"ear":2692,"hi":2693,"ho":2694,"hir":2695,"lle":2696,"os":2697,"th":2698,"un":2699,"Ġ7":2700,"Ġj":2701,"Ġre":2702,"à¤¹à¤Ĺ":2703,"à¤ķà¤¬à¤°":2704,"à¤¸à¤ķà¤¨":2705,"à¥¤'":2706,"Ġà¤®à¤Ĺà¤°":2707,"à¥Ī'à¥¤":2708,"Ġà¤¨à¤Ĺ":2709,"à¤ªà¤°à¤ķ":2710,"à¤Ĺà¤¸":2711,"Ġà¤ļà¤°à¤®à¤°":2712,"à¤Łà¤¹":2713,"à¤¶à¤Ĺ":2714,"à¤¬à¤®":2715,"à¤¬à¤¹à¤°":2716,"à¤¬à¤Łà¤¨":2717,"à¤¬à¤Łà¤°à¤«":2718,"à¤ľà¤®à¤¸":2719,"à¤ļà¤«":2720,"à¥Īà¤Ĥ-":2721,"à¥Īà¤Ĥ;":2722,"à¥Ģà¤Ĥ-":2723,"à¤¥à¤®":2724,"à¤ģ!\"":2725,"à¤§à¤®":2726,"à¤«à¤ľ":2727,"à¤¼à¥Ģ?":2728,"à¤Ĩà¤®":2729,"à¤ĩà¤Łà¤¨":2730,"à¤£à¤®":2731,"Ġà¤Ŀà¤¡":2732,"ĠâĤ¬?":2733,"Ġà¤ıà¤¥à¤¨":2734,"à¤¹à¤¸à¤ª":2735,"Ġà¤ıà¤®à¤Ĩà¤Īà¤ı":2736,"à¤¡à¤°à¤²":2737,"Ġà¤Īà¤¸":2738,"à¤Łà¤²à¤¸":2739,"ĠÃ¢letÃ¢":2740,"ĠÃ¢ok":2741,"Ġà¤īà¤¬à¤²à¤¤":2742,"Ġto":2743,"Ġtid":2744,"à¤®à¤¹à¤ķ":2745,"à¤¾à¤ģ!\",":2746,"Ġob":2747,"Ġthet":2748,"Ġthed":2749,"mmmm":2750,"Ġà¤ĵà¤ªà¤²":2751,"ĠMomom":2752,"ĠMommmy":2753,"Ġofj":2754,"Ġoflet":2755,"Ġofgo":2756,"ter":2757,"Ġcru":2758,"Ġcray":2759,"Ġma":2760,"lly":2761,"Ġdad":2762,"Ġeve":2763,"oppy":2764,"Ġà¤ªà¤¦à¤ļ":2765,"Ġ12":2766,"rry":2767,"à¤ĳà¤ªà¤°":2768,"Ġtheank":2769,"Ġà¤Łà¤ªà¤ķà¤¨":2770,"obÃ¢":2771,"ĠCAW":2772,"à¤ĩà¤«à¤Ĺ":2773,"one":2774,"Tweety":2775,"ĠWeeÃ¢":2776,"Ġ911":2777,"à¤ļà¤®à¤ķà¤¦":2778,"ĠÅĵNo":2779,"hirp":2780,"Ġthedo":2781,"Ġofgod":2782,"Ġcrum":2783,"Ġcrayons":2784,"HH":2785,"fo":2786,"gr":2787,"hÃ¢":2788,"ins":2789,"les":2790,"orry":2791,"pa":2792,"rave":2793,"ul":2794,"Ġ$":2795,"Ġ*":2796,"Ġz":2797,"Ġbe":2798,"Ġgood":2799,"Ġà¤ķà¤¨":2800,"Ġà¤ķà¤¥":2801,"à¤¨à¤¡":2802,"à¤ķà¤ªà¤ķ":2803,"à¤Ĥ?":2804,"à¤¸à¤Ĺ":2805,"à¤¸à¤ªà¤¨":2806,"à¤¸à¤¤à¤°":2807,"à¤²à¤Ł":2808,"à¤¯à¤ªà¤°":2809,"Ġà¤¬à¤Łà¤°":2810,"Ġà¤¬à¤¸à¤¤":2811,"Ġà¤¥à¤®":2812,"Ġà¤ªà¤®":2813,"Ġà¤²à¤ªà¤ķ":2814,"Ġà¤¨à¤¨":2815,"Ġà¤ħà¤Ľ":2816,"Ġà¤ħà¤ł":2817,"Ġà¤ıà¤ķà¤¸à¤®":2818,"à¤¼à¥ĩà¥¤\"":2819,"à¤¡à¤¶":2820,"à¥ĩà¤Ĥ'à¥¤":2821,"Ġà¤ľà¤ª":2822,"à¥Ĥ'":2823,"à¤Ĺà¤Ī":2824,"à¤ıà¤¶à¤²":2825,"à¤¶à¤²à¤¤":2826,"à¤¶à¤¹à¤¦":2827,"à¤¬à¤¦à¤¬":2828,"Ġà¤°à¤¨à¤µ":2829,"à¤ļà¤®":2830,"à¤ļà¤²à¤¨":2831,"Ġà¤Ĩà¤īà¤¸":2832,"Ġà¤Ĩà¤®à¤²":2833,"Ġà¤¤à¤Łà¤°":2834,"à¤ģà¥¤":2835,"Ġ\"'":2836,"à¤§à¤¬":2837,"à¤«à¤²à¤¤":2838,"à¤Ŀà¤ķ":2839,"à¤Ŀà¤ªà¤ķ":2840,"à¤Ĩà¤¦":2841,"à¤¼à¥ĩ!\"":2842,"à¤īà¤ł":2843,"à¤īà¤ªà¤¹":2844,"Ġà¤ĵà¤ĩ":2845,"Ġà¤ħà¤¨à¤¬":2846,"Ġà¤ħà¤¨à¤«":2847,"Ġà¤Ĩà¤¯à¤¤":2848,"Ġà¤Ĩà¤¯à¤°à¤¨":2849,"Ġà¤ıà¤ľ":2850,"à¤ĵà¤Ł":2851,"Ġà¤Ĭà¤¹":2852,"à¤¸à¤ķà¤¤":2853,"Ġà¤¢à¤²à¤¤":2854,"à¤°à¤¹à¤ª":2855,"à¤ĩà¤¨à¤¸":2856,"à¤ĩà¤¨à¤®":2857,"à¥ĭ!'":2858,"à¥Īà¤Ĥ?!\"":2859,"à¥Ĥà¤ģ!\",":2860,"Ġà¤ĳà¤¨":2861,"Ġà¤ªà¤¨à¤¡":2862,"à¤²à¤ķà¤¶":2863,"Ġà¤ħà¤µà¤¶":2864,"ĠÃ¢F":2865,"ĠÃ¢of":2866,"à¤¼à¥ĩà¤Ĥ\"à¥¤":2867,"à¤¾à¤ģ!\"à¥¤":2868,"à¥Ĥà¤ģ?\"à¥¤":2869,"Ġthr":2870,"ess":2871,"Ġà¤ļà¤¹à¤ķà¤ķà¤°":2872,"à¥Ĥà¤Ĥ?'":2873,"Ġà¤ıà¤¡à¤µà¤°":2874,"à¥Ĥà¤ģ!'":2875,"à¤®à¤¦à¤¦à¤Ĺ":2876,"Ġofwell":2877,"Ġdid":2878,"Ġeou":2879,"Ġexc":2880,"ĠÅĵH":2881,"ĠÅĵhe":2882,"Ġwiggled":2883,"à¤ĳà¤¨":2884,"Ġoke":2885,"Ġà¤Ĩà¤īà¤Łà¤¡":2886,"Ġà¤µà¤¨à¤¸":2887,"ĠSuzie":2888,"ĠBut":2889,"à¤ħà¤ľà¤µ":2890,"ackÃ¢":2891,"amama":2892,"ases":2893,"ĠCa":2894,"Ġ50":2895,"Ġbut":2896,"Ġvases":2897,"Ġrins":2898,"Ġramama":2899,"à¤¹à¤²à¤ļà¤²":2900,"RRR":2901,"à¤īà¤ªà¤ľ":2902,"Ġouch":2903,"ips":2904,"Ġfleas":2905,"ĠZoey":2906,"Ġthethat":2907,"hirpy":2908,"IA":2909,"Oink":2910,"Phew":2911,"SS":2912,"Suzie":2913,"TomÃ¢":2914,"cy":2915,"come":2916,"ds":2917,"em":2918,"han":2919,"ic":2920,"ipp":2921,"ice":2922,"lce":2923,"onk":2924,"pl":2925,"ry":2926,"ris":2927,"that":2928,"ze":2929,"Ãĥ":2930,"ĠF":2931,"ĠG":2932,"Ġan":2933,"à¤¾à¥ĭà¤Ĥ":2934,"à¥ĩà¤ģ":2935,"à¤°à¤ªà¤¤":2936,"Ġà¤ķà¤ļ":2937,"à¤¨à¤®à¤ķ":2938,"à¤¿?":2939,"à¤¿\"à¥¤":2940,"à¤¹à¤¡":2941,"à¤¹à¤«":2942,"à¤¸à¤¦":2943,"à¤¤à¤²à¤¤":2944,"Ġà¤¸à¤ľà¤¨":2945,"à¥ģ\"":2946,"à¤¯à¤Łà¤¨":2947,"à¥Ī'":2948,"à¤®à¤°à¤£":2949,"Ġà¤ªà¤µ":2950,"Ġà¤¦à¤ķ":2951,"Ġà¤µà¤ļà¤¨":2952,"Ġà¤¨à¤¥":2953,"à¤¼\"":2954,"à¤¡à¤¡":2955,"Ġà¤Ĺà¤¹à¤¨à¤¤":2956,"à¥Ĥ?":2957,"à¤Ĺà¤¹à¤°":2958,"Ġà¤ĸà¤®":2959,"à¤ıà¤ª":2960,"à¤ıà¤ı":2961,"à¤ıà¤¥à¤¨":2962,"à¤µà¤Ĺ":2963,"à¤¬à¤²à¤¤":2964,"à¤ľà¤¹à¤°":2965,"à¤ľà¤ķà¤¤":2966,"à¤ľà¤®à¤°":2967,"Ġà¤°à¤Ĺ":2968,"Ġà¤°à¤£à¤¨":2969,"à¤ļà¤µ":2970,"à¤ļà¤¢":2971,"à¤ļà¤µà¤°":2972,"Ġà¤Ĩà¤®à¤¨":2973,"à¥Ģà¤Ĥ;":2974,"Ġà¤ĩà¤ķ":2975,"à¤¼à¤¾?":2976,"à¤«à¤µ":2977,"à¥Ī,'":2978,"à¤īà¤¡à¤²":2979,"à¤ĩà¤ķà¤°":2980,"à¤ħà¤¸à¤²":2981,"à¤ħà¤µà¤ķ":2982,"Ġà¤ªà¤¤à¤µ":2983,"Ġà¤ħà¤¨à¤®":2984,"Ġà¤ħà¤¨à¤ļ":2985,"Ġà¤Ĺà¤°à¤®":2986,"à¤Ĺà¤²à¤ªà¤¨":2987,"Ġà¤Ĩà¤¯à¤²":2988,"à¤īà¤¸à¤¹":2989,"à¤īà¤¸à¤¸":2990,"Ġà¤¬à¤ļà¤ķ":2991,"Ġà¤¬à¤ļà¤ķà¤°":2992,"à¤¨à¤ķà¤²":2993,"Ġà¤Ńà¤°à¤£":2994,"à¤ĵà¤µ":2995,"à¤Łà¤°à¤¨":2996,"à¤Łà¤°à¤¬":2997,"Ġà¤Ĭà¤¬à¤¤":2998,"Ġà¤ħà¤Ńà¤¯":2999,"Ġà¤¬à¤°à¤¤à¤¨":3000,"Ġà¤¬à¤ľà¤°":3001,"Ġà¤¬à¤ľà¤Ł":3002,"à¥ĩà¤Ĥà¥¤'":3003,"Ġà¤¢à¤¹à¤¨":3004,"à¥Ī!'à¥¤":3005,"à¤¦à¤²à¤¦à¤²":3006,"à¤¸à¤®à¤°":3007,"à¥Ģ!\",":3008,"à¥Īà¤Ĥ?'":3009,"à¥Ģ?\",":3010,"Ġ'à¥¤":3011,"à¥ģà¤ģ?\"":3012,"ĠÃ¢L":3013,"ĠÃ¢he":3014,"ĠÃ¢be":3015,"ĠÃ¢hello":3016,"à¥Ģà¤Ĥ!\",":3017,"Ġà¤ļà¤¹à¤ļà¤¡":3018,"ĠItÃ¢":3019,"ĠMaybe":3020,"ĠMaisy":3021,"ĠMaia":3022,"Ġofcan":3023,"tey":3024,"Ġmomommy":3025,"weÃ¢":3026,"Ġhel":3027,"lla":3028,"pple":3029,"oooo":3030,"Ġea":3031,"ĠLi":3032,"ĠÅĵA":3033,"ĠÅĵO":3034,"Ġyour":3035,"Ġwr":3036,"Ġwhat":3037,"anny":3038,"Ġà¤Ķà¤¸à¤¤":3039,"Ġà¤ĵà¤Łà¤®":3040,"ream":3041,"ĠHoppy":3042,"ĠHonk":3043,"ĠWait":3044,"ĠSu":3045,"ĠBly":3046,"à¤ħà¤ľà¤Ĺà¤°":3047,"quea":3048,"amon":3049,"ash":3050,"ara":3051,"ĠJohn":3052,"ĠJackÃ¢":3053,"ĠÂ«":3054,"cec":3055,"Ġbu":3056,"ers":3057,"Ġ40":3058,"ĠweweÃ¢":3059,"Ġohoh":3060,"lease":3061,"hewy":3062,"axÃ¢":3063,"ĠÃ¢yay":3064,"Ġà¤ıà¤¶à¤Ł":3065,"ĠÃ¢Oh":3066,"ĠÃ¢HelloÃ¢":3067,"Ġcrumbs":3068,"ĠdidnÃ¢":3069,"Ġhelp":3070,"ĠBlythe":3071,"queak":3072,"'s":3073,"10":3074,"CAW":3075,"Chan":3076,"MaxÃ¢":3077,"SHH":3078,"WI":3079,"add":3080,"ammy":3081,"addy":3082,"bye":3083,"en":3084,"ex":3085,"eed":3086,"eas":3087,"jus":3088,"jimmy":3089,"ld":3090,"med":3091,"mai":3092,"olly":3093,"ps":3094,"rmai":3095,"ts":3096,"uck":3097,"yy":3098,"yla":3099,"Â»":3100,"âĤ¬":3101,"ĠR":3102,"Ġ,\"":3103,"ĠQu":3104,"à¥ĩ\",":3105,"à¥ĩ'à¥¤":3106,"à¤°à¤¡":3107,"à¤°à¤µà¤¤":3108,"à¤°à¤«à¤²":3109,"Ġà¤ķà¤Łà¤¨":3110,"à¥Ģ\",":3111,"à¤¹à¤¥":3112,"à¤ķà¤µ":3113,"à¥ĭ:":3114,"à¤¤à¤ķà¤°":3115,"à¤²à¤²":3116,"à¤²à¤Łà¤°":3117,"à¤²à¤ķà¤¡":3118,"à¤²à¤°à¤¸":3119,"à¤²à¤ľà¤®":3120,"Ġà¤¸à¤¶à¤ķ":3121,"Ġà¤¹à¤ķà¤²":3122,"à¤¯à¤°à¤ķà¤Ł":3123,"Ġà¤īà¤ªà¤ķ":3124,"à¤®à¤ĸà¤®à¤²":3125,"Ġà¤ªà¤¤à¤¨":3126,"Ġà¤ªà¤µà¤¨":3127,"Ġà¤²à¤¹à¤¸":3128,"Ġà¤²à¤¸à¤Ĺ":3129,"à¤ªà¤ª":3130,"Ġà¤ħà¤ľà¤°":3131,"Ġà¤ħà¤¥à¤ķ":3132,"à¤¼'":3133,"à¤¼à¥Ĥà¤Ĥ?\"":3134,"à¤¡à¤ķà¤²":3135,"à¤¡à¤°à¤¨":3136,"à¤¡à¤ķà¤Ł":3137,"Ġà¤ľà¤¨à¤µà¤°":3138,"Ġà¤Ĺà¤¶":3139,"à¤Ĺà¤Łà¤¨":3140,"Ġà¤ĸà¤²à¤¨":3141,"Ġà¤ļà¤Ĺ":3142,"à¤ĸà¤²à¤¤":3143,"à¤ĸà¤¬à¤°":3144,"à¤µà¤ķà¤°":3145,"à¤¶à¤¤à¤°":3146,"à¤¬à¤¬":3147,"à¤ľà¤¶":3148,"à¤ľà¤¤à¤¨":3149,"Ġà¤Ĩà¤ĩ":3150,"à¥Īà¤Ĥ'à¥¤":3151,"Ġà¤¤à¤¶":3152,"à¤Īà¤ķ":3153,"à¤Īà¤¡à¤¬":3154,"Ġà¤Łà¤ļ":3155,"Ġà¤ªà¤°à¤¦":3156,"Ġà¤ĩà¤¸à¤¹":3157,"Ġà¤Ľà¤¬":3158,"à¤¹à¤¤à¤¹":3159,"Ġà¤¶à¤Ĺà¤²":3160,"Ġà¤¶à¤²à¤ľà¤®":3161,"à¤§à¤ķà¤°":3162,"Ġà¤¡à¤¬":3163,"Ġà¤ĺà¤Łà¤ķ":3164,"à¤Ŀà¤¤":3165,"à¤Ŀà¤Ł":3166,"à¤Ŀà¤ķà¤°":3167,"à¤Ŀà¤Ĺà¤¡":3168,"à¤łà¤¦":3169,"à¤Ĩà¤Ń":3170,"à¤Ĩà¤¯à¤²":3171,"à¥Ĥà¤Ĥ\",":3172,"à¤īà¤¤à¤°":3173,"Ġà¤ĵà¤ĩà¤ķ":3174,"à¤ħà¤¤":3175,"à¤ħà¤¸à¤Ń":3176,"à¤ħà¤¸à¤¹":3177,"Ġ-âĤ¬":3178,"à¤¸à¤²à¤°":3179,"Ġà¤¤à¤°à¤¸à¤¤":3180,"ĠâĤ¬\"":3181,"Ġà¤ıà¤Ĺ":3182,"Ġà¤ıà¤¯à¤°":3183,"à¤ĵà¤¨":3184,"à¤ĵà¤ıà¤¸":3185,"à¤Łà¤°à¤Ł":3186,"à¤ªà¤ķà¤¤":3187,"à¥Ģ!'":3188,"à¤Łà¤¨à¤°":3189,"à¤ĺà¤¬à¤°":3190,"Ġà¤¢à¤ķà¤¨":3191,"à¤ĩà¤¡à¤°à¤®":3192,"à¤¯à¤°à¤¸":3193,"à¤Łà¤ķà¤¤":3194,"à¤¦à¤¨à¤¶":3195,"Ġà¤¥à¤ķà¤¤":3196,"Ġà¤Īà¤²":3197,"à¤¾?\",":3198,"ĠâĦ¢,":3199,"ĠâĦ¢à¥¤":3200,"à¤¼à¥Ĥà¥¤":3201,"Ġà¤Ĩà¤ĵà¤Ĺ":3202,"Ġà¤ªà¤¨à¤ª":3203,"Ġà¤¹à¤¥à¤ķà¤¡":3204,"à¤¾?'":3205,"ĠÃ¢no":3206,"ĠÃ¢oh":3207,"à¤ĩà¤Łà¤¬à¤²":3208,"à¥ĭ?'":3209,"à¥ĭ?!\"":3210,"à¥ĭ?!\"à¥¤":3211,"Ġicec":3212,"à¥ĩ?'":3213,"ĠâĢĿà¥¤":3214,"Ġà¤¸à¤¨à¤¬à¤°":3215,"Ġofmy":3216,"telle":3217,"Ġmi":3218,"Ġmu":3219,"Ġmy":3220,"Ġmax":3221,"Ġmia":3222,"wel":3223,"Ġhu":3224,"lemed":3225,"itten":3226,"ooo":3227,"ouch":3228,"à¥Ĥ!\"à¥¤":3229,"Ġella":3230,"Ġejimmy":3231,"ĠTippy":3232,"ĠÅĵI":3233,"ĠÅĵS":3234,"omet":3235,"Ġwhi":3236,"Ġwadd":3237,"Ġ16":3238,"ayÃ¢":3239,"llow":3240,"à¤ĩà¤®à¤Ĩà¤īà¤Ł":3241,"à¤ĳà¤¸":3242,"à¤ĳà¤Ł":3243,"Ġyum":3244,"Ġà¤Ķà¤ľ":3245,"Ġso":3246,"Ġsu":3247,"Ġsob":3248,"Ġstop":3249,"Ġspl":3250,"ĠHe":3251,"Ġà¤ªà¤Łà¤ķà¤¤":3252,"ĠBobÃ¢":3253,"Ġà¤īà¤Ĺà¤²à¤¤":3254,"à¥Ī\"!":3255,"zzzz":3256,"ĠChirpy":3257,"ĠChewy":3258,"ĠPrunes":3259,"ĠPurr":3260,"ĠPris":3261,"ĠJan":3262,"Ġmermai":3263,"ĠÃ¢See":3264,"Ġquacking":3265,"ĠDaisy":3266,"ĠÃ¢Hey":3267,"Ġwags":3268,"lat":3269,"lappy":3270,"ĠApple":3271,"Ġandgr":3272,"Ġmmom":3273,"Ġmmmmmm":3274,"okay":3275,"ĠÃ¢Mummy":3276,"ĠWell":3277,"ĠWelce":3278,"Ġwobbled":3279,"Ġknow":3280,"ump":3281,"ĠÃ¢Be":3282,"ther":3283,"ĠÃ¢Peas":3284,"aaaa":3285,"luey":3286,"ake":3287,"Ġmatey":3288,"follow":3289,"Ġthrou":3290,"Ġexclemed":3291,"Ġokeokay":3292,"Ġrinsed":3293,"Ġouchy":3294,"ipsqueak":3295,"Ġwriggled":3296,"just":3297,"Ġicecream":3298,"Ġsobs":3299,"ĠPrissy":3300,"Ġmermaids":3301,"Ġandgrand":3302,"ĠWelcem":3303,"ĠÃ¢Pease":3304,".\"":3305,"Al":3306,"Arrr":3307,"Aim":3308,"BRRR":3309,"CI":3310,"Eamon":3311,"LE":3312,"Maia":3313,"SE":3314,"UE":3315,"Zo":3316,"ab":3317,"aÃ¢":3318,"ace":3319,"arrr":3320,"but":3321,"ep":3322,"exc":3323,"eddy":3324,"ff":3325,"ful":3326,"face":3327,"ht":3328,"hy":3329,"ies":3330,"ick":3331,"izzy":3332,"ka":3333,"lo":3334,"lv":3335,"mama":3336,"mface":3337,"nna":3338,"please":3339,"ri":3340,"rob":3341,"rink":3342,"sp":3343,"st":3344,"shh":3345,"ty":3346,"tle":3347,"tlet":3348,"umy":3349,"uch":3350,"way":3351,"you":3352,"Ġ(":3353,"Ġ6":3354,"Ġes":3355,"Ġdd":3356,"ĠĠĠĊ":3357,"Ġno":3358,"Ġli":3359,"à¤°à¤ļà¤ķà¤°":3360,"Ġà¤ķà¤¸à¤¤":3361,"à¤¨à¤¥":3362,"à¤¨à¤ħà¤ª":3363,"à¤ķà¤¥":3364,"à¤ķà¤«":3365,"à¤ķà¤®à¤ľ":3366,"à¤Ĥ:":3367,"à¤¸à¤ıà¤ª":3368,"à¤¤à¤¬à¤²":3369,"Ġà¤¸à¤¨à¤°":3370,"à¥ģ,\"":3371,"à¤¯à¤ľ":3372,"Ġà¤®à¤ª":3373,"à¥Ī',":3374,"Ġà¤¥à¤¡":3375,"à¤®à¤ĸ":3376,"à¤®à¤Ŀ":3377,"à¤®à¤ķà¤°à¤£":3378,"Ġà¤²à¤¨":3379,"Ġà¤²à¤¬":3380,"Ġà¤²à¤¥à¤ª":3381,"à¤ªà¤¥":3382,"à¤ªà¤¹à¤¨":3383,"Ġà¤ħà¤¹":3384,"Ġà¤ħà¤ªà¤¹à¤°":3385,"à¤¼?":3386,"à¤¼à¥ī":3387,"à¤¡à¤¹à¤°":3388,"à¥ĩà¤Ĥ:":3389,"Ġà¤Ĺà¤ľà¤°":3390,"à¤Ĺà¤§":3391,"Ġà¤µà¤¹à¤¨":3392,"Ġà¤ĸà¤¸":3393,"à¥ĭà¤Ĥ\"":3394,"à¥ĭà¤Ĥ\"à¥¤":3395,"à¤ıà¤¦":3396,"à¤ıà¤Ł":3397,"à¤ıà¤µà¤°":3398,"Ġà¤ļà¤Ĺà¤¨":3399,"Ġà¤ļà¤ªà¤Ł":3400,"à¤Łà¤¡":3401,"à¤Łà¤ļ":3402,"à¤ĸà¤°à¤¤":3403,"à¤ĸà¤ªà¤¤":3404,"à¤ĸà¤¸à¤ĸ":3405,"à¤¬à¤Ł":3406,"à¤¬à¤¹à¤¸":3407,"à¤¬à¤¬à¤²":3408,"à¤ľà¤Ī":3409,"Ġà¤°à¤Ĺà¤¤":3410,"à¤ªà¤¨à¤°":3411,"Ġà¤¤à¤²à¤¨":3412,"Ġà¤ĩà¤µ":3413,"à¤Īà¤¶":3414,"Ġà¤Ńà¤ķ":3415,"Ġà¤Ńà¤¦":3416,"Ġà¤Łà¤Ĺà¤¨":3417,"Ġà¤Łà¤ķà¤¨":3418,"Ġà¤ªà¤°à¤ĸà¤¨":3419,"Ġ\"\"":3420,"à¤¾à¤ģ'":3421,"à¤¾à¤ģ\",":3422,"Ġà¤«à¤«":3423,"Ġà¤Ľà¤°":3424,"à¤·à¤ľà¤¨à¤ķ":3425,"à¤Ńà¤°à¤¤":3426,"à¤Ńà¤µà¤¤":3427,"Ġà¤¶à¤ķà¤°":3428,"Ġà¤¡à¤«":3429,"Ġà¤¡à¤¬à¤²":3430,"à¤«à¤¹à¤®":3431,"à¤Ŀà¤Łà¤ķ":3432,"à¤Ĩà¤¸":3433,"à¤Ĩà¤¯":3434,"à¤Ĩà¤ł":3435,"à¤Ĩà¤Ĩ":3436,"à¤Ĩà¤ķà¤°":3437,"à¤īà¤Ĺ":3438,"à¤ĩà¤ļ":3439,"à¤ķà¤°à¤¤":3440,"Ġà¤ĵà¤¨":3441,"Ġà¤ĵà¤ľ":3442,"à¤ħà¤¯":3443,"à¤¾!'à¥¤":3444,"à¤®à¤ķà¤Ī":3445,"Ġà¤Ĩà¤¯à¤°à¤²":3446,"à¥Īà¤Ĥ,'":3447,"Ġà¤Ŀà¤²à¤ķà¤¨":3448,"à¤¤à¤°à¤£":3449,"Ġà¤ıà¤«":3450,"Ġà¤ıà¤µà¤°":3451,"à¤ĵà¤¸":3452,"Ġà¤ħà¤²à¤°":3453,"à¤ªà¤ķà¤¨":3454,"à¤ªà¤ķà¤µ":3455,"à¤¹à¤¤à¤°à¤®":3456,"Ġà¤¸à¤¹à¤ķ":3457,"à¤°à¤®à¤¬à¤¦":3458,"Ġà¤Ĳà¤ª":3459,"à¤§à¤¨à¤ª":3460,"Ġà¤Ĩà¤Ĺà¤®à¤¨":3461,"Ġà¤¢à¤ķà¤¤":3462,"Ġà¤¸à¤®à¤Ŀà¤ķà¤°":3463,"Ġà¤ħà¤ľà¤²":3464,"Ġà¤ħà¤¸à¤®":3465,"à¤¬à¤²à¤¸":3466,"à¤°à¤¹à¤£":3467,"Ġà¤¸à¤°à¤ª":3468,"Ġà¤īà¤¦à¤¯":3469,"à¤Ĺà¤¡à¤®":3470,"à¥ĭ?\",":3471,"à¥Ĥà¤Ĥ!\",":3472,"Ġà¤¸à¤ļà¤®":3473,"à¥ĩ?\",":3474,"Ġ35":3475,"à¤¨à¤°à¤Ł":3476,"à¥Ģà¤Ĥ!'":3477,"ĠÃ¢i":3478,"ĠÃ¢m":3479,"ĠÃ¢do":3480,"ĠÃ¢go":3481,"ĠÃ¢follow":3482,"Ġà¤īà¤¬à¤²à¤¨":3483,"à¤ĩà¤Łà¤¹":3484,"à¤¼à¥ĩà¤Ĥ?\"":3485,"Ġout":3486,"Ġont":3487,"Ġthos":3488,"Ġic":3489,"Ġill":3490,"Ġà¤ħà¤ªà¤¶":3491,"mmmy":3492,"ĠII":3493,"ĠMy":3494,"ĠMommy":3495,"ĠMar":3496,"Ġoff":3497,"Ġofwel":3498,"ity":3499,"ittle":3500,"Ġmum":3501,"Ġhoh":3502,"Ġher":3503,"Ġhave":3504,"oot":3505,"inter":3506,"cker":3507,"Ġdaisy":3508,"Ġef":3509,"Ġel":3510,"Ġex":3511,"Ġepp":3512,"Ġewell":3513,"Ġelhello":3514,"Ġpe":3515,"ĠTom":3516,"ĠThey":3517,"à¤īà¤¡à¤¸":3518,"ĠÅĵjohn":3519,"ĠÅĵIÃ¢":3520,"ier":3521,"Ġwre":3522,"Ġwait":3523,"Ġwooo":3524,"Ġà¤īà¤²à¤Łà¤«":3525,"à¤ĳà¤¡":3526,"à¤ĳà¤¬":3527,"ĠĊĠĠ":3528,"Ġthatthat":3529,"Ġthen":3530,"Ġthere":3531,"Ġtheof":3532,"Ġthecan":3533,"myÃ¢":3534,"reat":3535,"heÃ¢":3536,"Ġà¤µà¤¨à¤Ń":3537,"ows":3538,"ĠZoom":3539,"ĠSure":3540,"ĠSWI":3541,"à¤ķà¤¦à¤¬à¤°":3542,"ĠBA":3543,"ĠBe":3544,"ĠBluey":3545,"ight":3546,"qui":3547,"ĠÃ¢Couch":3548,"art":3549,"armface":3550,"ĠPa":3551,"ĠPhew":3552,"Ġommom":3553,"Ġommmmy":3554,"Ġommommy":3555,"Ġà¤¬à¤¬à¤²à¤Ĺà¤®":3556,"Ġklook":3557,"irly":3558,"à¤¾à¤ģ\"!":3559,"usie":3560,"Ġ!!\"":3561,"Ġallo":3562,"Ġamy":3563,"Ġare":3564,"ĠĠĠ":3565,"okka":3566,"iggle":3567,"iss":3568,"Ġohjohn":3569,"Ġwobbles":3570,"atch":3571,"imÃ¢":3572,"illy":3573,"lize":3574,"Ġà¤ĵà¤ªà¤¨à¤°":3575,"ĠÃ¢No":3576,"naÃ¢":3577,"ores":3578,"à¤Ĩà¤°à¤Ĩà¤°à¤Ĩà¤°à¤Ĩà¤°":3579,"Ewww":3580,"lucy":3581,"Ġing":3582,"Quokka":3583,"cause":3584,"Ġownow":3585,"Ġyeare":3586,"Ġgirly":3587,"ĠÃ¢did":3588,"ĠÃ¢Meow":3589,"MMY":3590,"aking":3591,"Ġtidy":3592,"Ġevery":3593,"Ġzigzag":3594,"ĠÅĵHI":3595,"ĠÅĵOn":3596,"ĠSueÃ¢":3597,"Ġbuzzy":3598,"Chantelle":3599,"ammyÃ¢":3600,"eedee":3601,"ĠÅĵSure":3602,"Ġsplash":3603,"ĠDaisyÃ¢":3604,"Ġthrounthank":3605,"Ġandgrandpa":3606,"Aimee":3607,"excuse":3608,"nnalize":3609,"ways":3610,"Ġà¤²à¤¥à¤ªà¤¥":3611,"Ġà¤ħà¤ªà¤¹à¤°à¤£":3612,"à¤ĸà¤¸à¤ĸà¤¸":3613,"à¤Ĩà¤Ĩà¤Ĩà¤¹":3614,"Ġthose":3615,"Ġwrecker":3616,"ĠSWIMMY":3617,"ĠÃ¢CouchÃ¢":3618,"!'à¥¤":3619,"'!":3620,"'t":3621,"AR":3622,"AX":3623,"ASE":3624,"Annalize":3625,"BobÃ¢":3626,"Con":3627,"Cel":3628,"Chirpy":3629,"Dippy":3630,"ET":3631,"Flappy":3632,"Fores":3633,"His":3634,"Hoppy":3635,"Joh":3636,"JAX":3637,"LetÃ¢":3638,"Lanny":3639,"Lyla":3640,"Mar":3641,"Mac":3642,"MIA":3643,"ON":3644,"OP":3645,"OAR":3646,"Pipsqueak":3647,"RAW":3648,"Rex":3649,"Tippy":3650,"WeÃ¢":3651,"Zzzzz":3652,"al":3653,"ap":3654,"all":3655,"ain":3656,"apa":3657,"aqui":3658,"by":3659,"bly":3660,"cAl":3661,"dy":3662,"ded":3663,"day":3664,"dow":3665,"der":3666,"emm":3667,"eet":3668,"eing":3669,"ere":3670,"flat":3671,"flo":3672,"gg":3673,"how":3674,"ian":3675,"ily":3676,"ions":3677,"iff":3678,"ky":3679,"kÃ¢":3680,"lp":3681,"ling":3682,"lis":3683,"mi":3684,"mie":3685,"mom":3686,"maybe":3687,"mem":3688,"nd":3689,"ng":3690,"nice":3691,"niff":3692,"oe":3693,"oy":3694,"otÃ¢":3695,"other":3696,"pÃ¢":3697,"ra":3698,"rp":3699,"rom":3700,"row":3701,"rid":3702,"rip":3703,"se":3704,"sie":3705,"smie":3706,"tweet":3707,"tob":3708,"thank":3709,"tim":3710,"ug":3711,"ur":3712,"uit":3713,"ube":3714,"ulat":3715,"veÃ¢":3716,"ws":3717,"wit":3718,"wow":3719,"yay":3720,"zes":3721,"âĢ":3722,"Ġ#":3723,"Ġ.":3724,"Ġx":3725,"Ġll":3726,"Ġru":3727,"Ġrr":3728,"Ġly":3729,"Ġjohn":3730,"Ķà¤¸à¤¤":3731,"à¤Ķà¤¸à¤¤":3732,"à¤¾.":3733,"à¤¾/":3734,"à¥ĩ/":3735,"à¤°à¤ļà¤¤":3736,"à¤°à¤¸à¤¤":3737,"à¤°à¤ıà¤µà¤°":3738,"à¥Ģ/":3739,"à¥Ģ'à¥¤":3740,"à¤¨à¤µà¤¸":3741,"à¤¿'":3742,"à¤¿:":3743,"à¤ķà¤ļà¤°":3744,"à¤ķà¤ĳà¤«":3745,"à¤Ĥ'":3746,"à¤¸à¤ĺ":3747,"à¤¸à¤¬à¤ķ":3748,"à¤¤à¤¡":3749,"à¤²à¤¸à¤¤":3750,"à¤²à¤ķà¤¤":3751,"à¥ģà¥¤\"":3752,"Ġà¤¹à¤¦":3753,"Ġà¤¹à¤ªà¤ķ":3754,"Ġà¤¹à¤Łà¤¤":3755,"Ġà¤¹à¤«à¤¨":3756,"à¤¯à¤ªà¤¤":3757,"Ġà¤®à¤«à¤²":3758,"Ġà¤®à¤Łà¤®":3759,"à¥Īà¤ģ":3760,"Ġà¤īà¤°":3761,"Ġà¤īà¤·":3762,"à¤®à¤ª":3763,"à¤®à¤¹à¤¤":3764,"à¤®à¤£":3765,"à¤®à¤°à¤®":3766,"à¤®à¤¹à¤¸":3767,"à¤®à¤²à¤¬":3768,"Ġà¤µà¤ľ":3769,"Ġà¤µà¤īà¤¸":3770,"Ġà¤¨à¤ĸà¤°":3771,"à¤¦à¤ĸà¤²":3772,"à¤ªà¤Łà¤°":3773,"à¤ªà¤²à¤°":3774,"Ġà¤ħà¤µà¤§":3775,"Ġà¤ħà¤µà¤¹":3776,"à¤¼à¥Ĥà¤ģ":3777,"à¤¼\"à¥¤":3778,"à¤¡à¤°à¤¤":3779,"à¤¡à¤ħà¤¬":3780,"à¥ĩà¤Ĥ'":3781,"Ġà¤Ĺà¤ľ":3782,"Ġà¤Ĺà¤ł":3783,"Ġà¤Ĺà¤Łà¤°":3784,"Ġà¤Ĺà¤łà¤°":3785,"Ġà¤ķà¤°à¤ķà¤°":3786,"à¤ıà¤«":3787,"à¤ıà¤¡à¤µ":3788,"Ġà¤ļà¤°à¤¨":3789,"à¤Łà¤ªà¤Ł":3790,"à¤µà¤°à¤ķ":3791,"à¤¶à¤Ł":3792,"à¤¬à¤¥":3793,"à¤ľà¤Ĺ":3794,"à¤ľà¤¡à¤®":3795,"Ġà¤°à¤¨à¤°":3796,"à¤ļà¤¸":3797,"à¤ļà¤ĸà¤¨":3798,"à¤ļà¤®à¤Ĺ":3799,"Ġà¤Ĩà¤ī":3800,"Ġà¤Ĩà¤ĩà¤²":3801,"Ġà¤Ĩà¤ĩà¤µ":3802,"Ġà¤īà¤¨à¤¤":3803,"Ġà¤¤à¤°à¤ķ":3804,"à¤¾,'":3805,"Ġà¤¯à¤µà¤¨":3806,"à¥Ģà¤Ĥà¥ĩà¤Ĥ":3807,"à¥Ģà¤Ĥ\",":3808,"à¥Ģà¤Ĥ'à¥¤":3809,"Ġà¤ĩà¤Łà¤²":3810,"à¤¥à¤«":3811,"à¤Īà¤Ł":3812,"Ġà¤Ńà¤Ł":3813,"à¤ģ!":3814,"Ġà¤ªà¤°à¤¸":3815,"Ġ\",":3816,"à¥ī,":3817,"à¤¾à¤ģ-":3818,"à¤¾à¤ģ',":3819,"Ġà¤«à¤ļ":3820,"Ġà¤«à¤Łà¤ķ":3821,"Ġà¤Ľà¤®":3822,"Ġà¤Ľà¤Łà¤ªà¤Ł":3823,"Ġà¤ķà¤°à¤¤à¤¬":3824,"à¤Ńà¤Łà¤ķà¤¤":3825,"Ġà¤¶à¤ĸ":3826,"à¤¼à¤¾-":3827,"à¤¼à¤¾:":3828,"à¤§à¤®à¤ķ":3829,"Ġà¤ĺà¤®":3830,"à¤¼à¥Ģ\"":3831,"à¤¼à¥Ģ-":3832,"à¤¼à¥Ģ:":3833,"à¤¼à¥Ģ\"à¥¤":3834,"Ġà¤®à¤¹à¤ķà¤¤":3835,"à¤¾à¤Ĥ\"":3836,"à¤¾à¤Ĥ,\"":3837,"Ġà¤¬à¤¨à¤¬":3838,"Ġà¤ªà¤ķà¤¤":3839,"Ġà¤ľà¤¬à¤°à¤¦":3840,"Ġà¤¸à¤®à¤¤à¤²":3841,"à¤¼à¥ĩ-":3842,"à¤¼à¥ĩ?":3843,"à¥Ĥà¤Ĥ'":3844,"à¤īà¤ªà¤¯":3845,"à¤īà¤²à¤°":3846,"à¤īà¤¥à¤«":3847,"à¤¤à¤¨à¤¶":3848,"à¤ĩà¤Ĺ":3849,"Ġà¤ĵà¤Ĩà¤°":3850,"à¤¾!?\"":3851,"Ġà¤ħà¤¨à¤Ĺ":3852,"à¤¿à¤Ĥ!\"":3853,"à¤°à¤ķà¤¨":3854,"à¤°à¤ķà¤ª":3855,"à¤£à¤¤":3856,"à¤£à¤ķà¤Ł":3857,"Ġà¤¤à¤°à¤¸à¤¨":3858,"à¤¸à¤°à¤¸":3859,"Ġà¤Ŀà¤²à¤ķà¤¤":3860,"Ġà¤ľà¤²à¤°":3861,"Ġà¤ľà¤²à¤ª":3862,"Ġà¤ıà¤Ł":3863,"Ġà¤ıà¤ļ":3864,"à¤ĵà¤ªà¤¨":3865,"à¤ĵà¤µà¤°":3866,"à¤ĵà¤ĩà¤ķ":3867,"à¤Łà¤°à¤²":3868,"à¤Łà¤°à¤Ĺ":3869,"à¤ªà¤°à¤¸":3870,"à¤ªà¤°à¤ª":3871,"Ġà¤Ĭà¤¹à¤¦":3872,"à¤¤à¤²à¤µ":3873,"Ġà¤¦à¤°à¤¬":3874,"Ġà¤¸à¤¹à¤ķà¤°":3875,"Ġà¤¸à¤¹à¤ľà¤¤":3876,"à¤ļà¤°à¤°":3877,"à¤°à¤®à¤¸":3878,"Ġà¤Ĳà¤¡":3879,"Ġà¤¬à¤°à¤ķà¤°":3880,"à¤īà¤¨à¤¸":3881,"à¥Ĥà¤ģ\"":3882,"à¤Ĺà¤¤à¤¤":3883,"à¤§à¤¨à¤¶":3884,"Ġà¤¢à¤¹à¤¤":3885,"à¤ĩà¤¡à¤²":3886,"Ġà¤Ĺà¤²à¤¤à¤«à¤¹à¤®":3887,"à¤¯à¤°à¤¬":3888,"Ġà¤ıà¤®à¤°":3889,"à¤¼à¥ĭà¤Ĥà¥¤":3890,"à¥ĭà¥¤'":3891,"à¤ħà¤¨à¤«":3892,"Ġà¤¸à¤«à¤°":3893,"Ġà¤²à¤¹à¤°à¤¦":3894,"Ġà¤ħà¤¸à¤¹à¤¨":3895,"Ġà¤¥à¤ķà¤ķà¤°":3896,"Ġà¤īà¤ľà¤²":3897,"Ġà¤¸à¤°à¤²à¤¤":3898,"Ġà¤īà¤²à¤Łà¤¤":3899,"à¤ĩà¤¨à¤²":3900,"à¤¥à¤°à¤¬":3901,"Ġà¤Īà¤ķ":3902,"Ġà¤Īà¤¡à¤¬":3903,"à¤ķà¤Łà¤®":3904,"ĠâĦ¢?":3905,"Ġà¤ªà¤²à¤Łà¤¨":3906,"Ġà¤ªà¤²à¤Łà¤¤":3907,"à¤¼à¥Ĥ,":3908,"à¤¼à¥Ĥ!\"":3909,"à¤ĩà¤¸à¤¹":3910,"Ġà¤¦à¤¸à¤µ":3911,"à¥Īà¤Ĥ!'à¥¤":3912,"Ġà¤ĳà¤²":3913,"Ġà¤ªà¤¨à¤ªà¤¨":3914,"Ġ37":3915,"à¥ĩ!\",":3916,"à¤°à¤µà¤ķ":3917,"Ġà¤ľà¤¨à¤°":3918,"Ġ',":3919,"à¥Ģà¤Ĥ!,\"":3920,"Ġà¤īà¤§à¤®":3921,"Ġà¤ĩà¤¨à¤¸":3922,"à¤¾?!":3923,"à¤¾?,\"":3924,"Ġà¤ĩà¤®à¤°à¤ľ":3925,"à¤¸à¤«à¤²à¤¤":3926,"ĠÃ¢A":3927,"ĠÃ¢D":3928,"ĠÃ¢f":3929,"ĠÃ¢g":3930,"ĠÃ¢s":3931,"ĠÃ¢can":3932,"ĠÃ¢now":3933,"ĠÃ¢just":3934,"Ġtweet":3935,"Ġtom":3936,"Ġtimmy":3937,"Ġteddy":3938,"Ġtoot":3939,"Ġà¤¦à¤¹à¤²":3940,"Ġà¤¨à¤ķà¤¦":3941,"à¤Ĳà¤¡":3942,"à¤¡à¤ķà¤ķ":3943,"à¥ĭ?,\"":3944,"à¥ĭ?'à¥¤":3945,"Ġoc":3946,"Ġock":3947,"Ġops":3948,"Ġà¤ħà¤Łà¤ķà¤¨":3949,"Ġyank":3950,"Ġyear":3951,"Ġà¤ļà¤¹à¤²":3952,"à¤¸à¤¬à¤µ":3953,"Ġà¤īà¤Ľà¤²à¤ķà¤°":3954,"à¤ıà¤¡à¤µà¤°":3955,"Ġà¤ħà¤ªà¤®":3956,"à¥Ĥà¤Ĥ?!\"":3957,"Ġà¤¬à¤Łà¤°à¤ķà¤ª":3958,"mmummy":3959,"à¥Ģ?'":3960,"à¥Ģ?!\"":3961,"Ġà¤¸à¤¨à¤¬":3962,"Ġà¤¥à¤°à¤¥à¤°":3963,"ĠIt":3964,"ĠMai":3965,"ĠMax":3966,"ĠMama":3967,"ĠMitten":3968,"ĠMcAl":3969,"Ġofs":3970,"Ġofhe":3971,"Ġofhello":3972,"Ġofhey":3973,"Ġofhi":3974,"Ġofmama":3975,"Ġofplease":3976,"Ġofexcuse":3977,"ted":3978,"ten":3979,"Ġcom":3980,"Ġà¥¤à¥¤":3981,"nsy":3982,"Ġmommy":3983,"Ġmomm":3984,"Ġmummy":3985,"wer":3986,"Ġhid":3987,"Ġhiss":3988,"lean":3989,"lls":3990,"llÃ¢":3991,"oof":3992,"inaÃ¢":3993,"ould":3994,"à¥Ĥ!\",":3995,"Ġcudded":3996,"à¤Ĥ!\"à¥¤":3997,"Ġdos":3998,"Ġdaddy":3999,"Ġdeedee":4000,"Ġeay":4001,"Ġeca":4002,"ĠLia":4003,"ĠLIA":4004,"ĠLanny":4005,"ĠLyla":4006,"à¥ĩà¤Ĥ?!":4007,"Ġpur":4008,"ĠTy":4009,"ĠThe":4010,"ĠTomÃ¢":4011,"ĠTwit":4012,"ingÃ¢":4013,"Ġ....":4014,"Ġà¤ªà¤¦à¤Ń":4015,"ĠÅĵJ":4016,"ĠÅĵT":4017,"ĠÅĵm":4018,"ĠÅĵy":4019,"Ġwow":4020,"Ġwon":4021,"Ġwill":4022,"ruck":4023,"Ġ11":4024,"Ġ13":4025,"ane":4026,"ayaking":4027,"à¤¼à¥ĭ!\"à¥¤":4028,"Ġyumm":4029,"hadow":4030,"Ġtheat":4031,"Ġthehey":4032,"Ġthewow":4033,"Ġsa":4034,"Ġsh":4035,"Ġsha":4036,"Ġshh":4037,"Ġsome":4038,"Ġsorry":4039,"Ġsomet":4040,"reful":4041,"heart":4042,"à¥ĭ\"!":4043,"ĠWiggle":4044,"bemaybe":4045,"à¥ĭà¤Ĥ?\"à¥¤":4046,"ĠZipp":4047,"ĠZzzzz":4048,"ĠSUE":4049,"ĠSheÃ¢":4050,"ĠSammyÃ¢":4051,"Ġ25":4052,"ĠBir":4053,"ĠBrave":4054,"ĠBess":4055,"ige":4056,"ĠOuch":4057,"ĠÃ¢ItÃ¢":4058,"ames":4059,"www":4060,"zzie":4061,"à¤¸à¤®à¤Ŀà¤¨":4062,"à¤¸à¤®à¤Ŀà¤¦":4063,"ĠÃ¢Cor":4064,"arian":4065,"ĠPipsqueak":4066,"à¥Ģ',":4067,"ĠJill":4068,"ĠÂ±":4069,"ĠÂ»":4070,"Ġmemmmy":4071,"Ġmeows":4072,"Ġpurring":4073,"eeee":4074,"ĠÃ¢St":4075,"ĠÃ¢Stop":4076,"ĠÃ¢whe":4077,"ĠÃ¢who":4078,"cent":4079,"Ġbob":4080,"Ġbrave":4081,"Ġà¤¬à¤¬à¤²à¤¬à¤¥":4082,"erÃ¢":4083,"ĠDippy":4084,"ĠDaddy":4085,"à¤¤à¤¹à¤ĸ":4086,"Ġrob":4087,"ĠAM":4088,"ĠAmyÃ¢":4089,"ĠAllÃ¢":4090,"Ġkayaking":4091,"Ġmmum":4092,"Ġmmolly":4093,"Ġà¤ªà¤°à¤¤à¤¦":4094,"ĠÂ©,":4095,"ĠÂ©à¥¤":4096,"Ġ!!":4097,"Ġ!!\"à¥¤":4098,"ĠÃĥ":4099,"Ġwets":4100,"iggly":4101,"à¤ķà¤łà¤«":4102,"leaseÃ¢":4103,"atulat":4104,"imes":4105,"uzy":4106,"à¤īà¤ªà¤²à¤¬":4107,"à¤īà¤ªà¤ķà¤°à¤£":4108,"Ġememm":4109,"ĠÃ¢Big":4110,"ĠÃ¢But":4111,"ĠÃ¢Bye":4112,"Ġone":4113,"ĠonCon":4114,"ĠÃ¢Please":4115,"ĠÃ¢PLE":4116,"ĠÃ¢PleaseÃ¢":4117,"ĠÃ¢yuck":4118,"ĠÃ¢yumy":4119,"Ġoute":4120,"Quack":4121,"Ġfor":4122,"à¤īà¤Ľà¤²à¤¨":4123,"ĠZog":4124,"OOOO":4125,"ssss":4126,"ĠEMM":4127,"ĠEamon":4128,"ĠEsmie":4129,"Ġgul":4130,"Ġgreat":4131,"Ġà¤¬à¤°à¤¤à¤¤":4132,"ĠÃ¢dad":4133,"thump":4134,"unny":4135,"ĠÃ¢okayÃ¢":4136,"Ġtideing":4137,"Ġobrob":4138,"Ġobtob":4139,"Ġofjane":4140,"Ġmazes":4141,"Ġevell":4142,"Ġcrumbly":4143,"gratulat":4144,"Ġzoo":4145,"Ġbeep":4146,"Ġthrank":4147,"Ġexcuse":4148,"ĠÅĵHy":4149,"Ġrinses":4150,"ippee":4151,"ĠFleas":4152,"ĠFlappy":4153,"ĠGood":4154,"ĠGinaÃ¢":4155,"ĠÃ¢Little":4156,"ĠÃ¢helloÃ¢":4157,"Ġeach":4158,"ĠLizzie":4159,"arah":4160,"arahÃ¢":4161,"yyy":4162,"ĠQuack":4163,"ĠQuick":4164,"ĠmuÃĥ":4165,"Ġmummummy":4166,"Ġwhich":4167,"Ġsuns":4168,"Zoey":4169,"able":4170,"rite":4171,"strid":4172,"Ġddddy":4173,"Ġlion":4174,"Ġà¤¶à¤ķà¤°à¤ķ":4175,"Ġà¤¡à¤«à¤®":4176,"Ġicic":4177,"Ġeppapa":4178,"ĠBecause":4179,"ĠPaige":4180,"Ġzigzags":4181,"Celie":4182,"Foreshadow":4183,"Hisssss":4184,"JohnÃ¢":4185,"LylaÃ¢":4186,"MaryÃ¢":4187,"MacÃ¢":4188,"RAWR":4189,"Zzzzzz":4190,"flatable":4191,"flower":4192,"member":4193,"niffer":4194,"ripe":4195,"time":4196,"Ġrumm":4197,"Ġrrrrr":4198,"Ġlyla":4199,"Ġjohnny":4200,"Ġà¤ľà¤¬à¤°à¤¦à¤¸":4201,"Ġopstop":4202,"Ġyanked":4203,"ĠMaisie":4204,"ĠMcAlarmface":4205,"Ġmommommy":4206,"Ġhissed":4207,"ĠdosnÃ¢":4208,"ĠÃ¢CornÃ¢":4209,"cents":4210,"Ġwetsuit":4211,"Ġememma":4212,"ĠonCongratulat":4213,"ĠÃ¢PLEASE":4214,"ĠEMMI":4215,"Ġgulp":4216,"Ġobtoby":4217,"Foreshadowing":4218,"ĠonCongratulations":4219}